#include "magic_wand_model_data.h"

// We need to keep the data array aligned on some architectures.
#ifdef __has_attribute
#define HAVE_ATTRIBUTE(x) __has_attribute(x)
#else
#define HAVE_ATTRIBUTE(x) 0
#endif
#if HAVE_ATTRIBUTE(aligned) || (defined(__GNUC__) && !defined(__clang__))
#define DATA_ALIGN_ATTRIBUTE __attribute__((aligned(4)))
#else
#define DATA_ALIGN_ATTRIBUTE
#endif

const unsigned char g_magic_wand_model_data[] DATA_ALIGN_ATTRIBUTE = {
  // Paste the data of the char array in `src/model.cc` here
  0x1c, 0x00, 0x00, 0x00, 0x54, 0x46, 0x4c, 0x33, 0x14, 0x00, 0x20, 0x00,
  0x04, 0x00, 0x08, 0x00, 0x0c, 0x00, 0x10, 0x00, 0x14, 0x00, 0x00, 0x00,
  0x18, 0x00, 0x1c, 0x00, 0x14, 0x00, 0x00, 0x00, 0x03, 0x00, 0x00, 0x00,
  0x18, 0x00, 0x00, 0x00, 0x2c, 0x00, 0x00, 0x00, 0xd8, 0x00, 0x00, 0x00,
  0x2c, 0x00, 0x00, 0x00, 0x80, 0x00, 0x00, 0x00, 0x78, 0x00, 0x00, 0x00,
  0x05, 0x00, 0x00, 0x00, 0x28, 0x07, 0x00, 0x00, 0x44, 0x06, 0x00, 0x00,
  0xbc, 0x03, 0x00, 0x00, 0xf8, 0x02, 0x00, 0x00, 0xac, 0x01, 0x00, 0x00,
  0x01, 0x00, 0x00, 0x00, 0xd0, 0x00, 0x00, 0x00, 0x14, 0x00, 0x00, 0x00,
  0x98, 0x32, 0x00, 0x00, 0x94, 0x32, 0x00, 0x00, 0x8c, 0x31, 0x00, 0x00,
  0xd8, 0x30, 0x00, 0x00, 0x30, 0x30, 0x00, 0x00, 0xbc, 0x2f, 0x00, 0x00,
  0x50, 0x2f, 0x00, 0x00, 0x00, 0x13, 0x00, 0x00, 0xec, 0x11, 0x00, 0x00,
  0x10, 0x10, 0x00, 0x00, 0xb4, 0x07, 0x00, 0x00, 0x6c, 0x32, 0x00, 0x00,
  0x68, 0x32, 0x00, 0x00, 0x64, 0x32, 0x00, 0x00, 0x60, 0x32, 0x00, 0x00,
  0x5c, 0x32, 0x00, 0x00, 0x58, 0x32, 0x00, 0x00, 0x54, 0x32, 0x00, 0x00,
  0x50, 0x32, 0x00, 0x00, 0x3c, 0x00, 0x00, 0x00, 0x00, 0x00, 0x00, 0x00,
  0x01, 0x00, 0x00, 0x00, 0x0c, 0x00, 0x00, 0x00, 0x08, 0x00, 0x0c, 0x00,
  0x04, 0x00, 0x08, 0x00, 0x08, 0x00, 0x00, 0x00, 0x08, 0x00, 0x00, 0x00,
  0x13, 0x00, 0x00, 0x00, 0x13, 0x00, 0x00, 0x00, 0x6d, 0x69, 0x6e, 0x5f,
  0x72, 0x75, 0x6e, 0x74, 0x69, 0x6d, 0x65, 0x5f, 0x76, 0x65, 0x72, 0x73,
  0x69, 0x6f, 0x6e, 0x00, 0xfa, 0xce, 0xff, 0xff, 0x04, 0x00, 0x00, 0x00,
  0x10, 0x00, 0x00, 0x00, 0x31, 0x2e, 0x35, 0x2e, 0x30, 0x00, 0x00, 0x00,
  0x00, 0x00, 0x00, 0x00, 0x00, 0x00, 0x00, 0x00, 0x0f, 0x00, 0x00, 0x00,
  0x4d, 0x4c, 0x49, 0x52, 0x20, 0x43, 0x6f, 0x6e, 0x76, 0x65, 0x72, 0x74,
  0x65, 0x64, 0x2e, 0x00, 0x00, 0x00, 0x0e, 0x00, 0x18, 0x00, 0x04, 0x00,
  0x08, 0x00, 0x0c, 0x00, 0x10, 0x00, 0x14, 0x00, 0x0e, 0x00, 0x00, 0x00,
  0x14, 0x00, 0x00, 0x00, 0x5c, 0x00, 0x00, 0x00, 0x60, 0x00, 0x00, 0x00,
  0x64, 0x00, 0x00, 0x00, 0x84, 0x00, 0x00, 0x00, 0x12, 0x00, 0x00, 0x00,
  0x58, 0x31, 0x00, 0x00, 0xe8, 0x30, 0x00, 0x00, 0x44, 0x30, 0x00, 0x00,
  0x9c, 0x2f, 0x00, 0x00, 0xf4, 0x2e, 0x00, 0x00, 0x94, 0x2e, 0x00, 0x00,
  0x2c, 0x2e, 0x00, 0x00, 0xd8, 0x11, 0x00, 0x00, 0xbc, 0x10, 0x00, 0x00,
  0xe0, 0x0e, 0x00, 0x00, 0x0c, 0x06, 0x00, 0x00, 0x28, 0x05, 0x00, 0x00,
  0xe8, 0x03, 0x00, 0x00, 0x3c, 0x03, 0x00, 0x00, 0x98, 0x02, 0x00, 0x00,
  0xd4, 0x01, 0x00, 0x00, 0x10, 0x01, 0x00, 0x00, 0x84, 0x00, 0x00, 0x00,
  0x01, 0x00, 0x00, 0x00, 0x00, 0x00, 0x00, 0x00, 0x01, 0x00, 0x00, 0x00,
  0x11, 0x00, 0x00, 0x00, 0x08, 0x00, 0x00, 0x00, 0x74, 0x05, 0x00, 0x00,
  0x94, 0x04, 0x00, 0x00, 0x78, 0x03, 0x00, 0x00, 0xbc, 0x02, 0x00, 0x00,
  0x30, 0x02, 0x00, 0x00, 0x50, 0x01, 0x00, 0x00, 0xa8, 0x00, 0x00, 0x00,
  0x10, 0x00, 0x00, 0x00, 0x04, 0x00, 0x00, 0x00, 0x6d, 0x61, 0x69, 0x6e,
  0x00, 0x00, 0x00, 0x00, 0x7a, 0xff, 0xff, 0xff, 0x00, 0x00, 0x00, 0x09,
  0x04, 0x00, 0x00, 0x00, 0x1c, 0x00, 0x00, 0x00, 0x10, 0x00, 0x00, 0x00,
  0x04, 0x00, 0x00, 0x00, 0xf6, 0xcf, 0xff, 0xff, 0x00, 0x00, 0x80, 0x3f,
  0x01, 0x00, 0x00, 0x00, 0x11, 0x00, 0x00, 0x00, 0x01, 0x00, 0x00, 0x00,
  0x10, 0x00, 0x00, 0x00, 0xa0, 0xfa, 0xff, 0xff, 0x19, 0x00, 0x00, 0x00,
  0x00, 0x00, 0x00, 0x19, 0x01, 0x00, 0x00, 0x00, 0x84, 0xcf, 0xff, 0xff,
  0x14, 0x00, 0x00, 0x00, 0x12, 0x00, 0x00, 0x00, 0x18, 0x00, 0x00, 0x00,
  0x30, 0x00, 0x00, 0x00, 0x20, 0x00, 0x00, 0x00, 0x02, 0x00, 0x00, 0x00,
  0x01, 0x00, 0x00, 0x00, 0x03, 0x00, 0x00, 0x00, 0x08, 0x00, 0x00, 0x00,
  0x49, 0x64, 0x65, 0x6e, 0x74, 0x69, 0x74, 0x79, 0x00, 0x00, 0x00, 0x00,
  0x02, 0x00, 0x00, 0x00, 0xff, 0xff, 0xff, 0xff, 0x03, 0x00, 0x00, 0x00,
  0x68, 0xd0, 0xff, 0xff, 0x00, 0x00, 0x0e, 0x00, 0x18, 0x00, 0x08, 0x00,
  0x0c, 0x00, 0x10, 0x00, 0x07, 0x00, 0x14, 0x00, 0x0e, 0x00, 0x00, 0x00,
  0x00, 0x00, 0x00, 0x08, 0x03, 0x00, 0x00, 0x00, 0x18, 0x00, 0x00, 0x00,
  0x0c, 0x00, 0x00, 0x00, 0x04, 0x00, 0x00, 0x00, 0x84, 0xcf, 0xff, 0xff,
  0x01, 0x00, 0x00, 0x00, 0x10, 0x00, 0x00, 0x00, 0x03, 0x00, 0x00, 0x00,
  0x0f, 0x00, 0x00, 0x00, 0x07, 0x00, 0x00, 0x00, 0x04, 0x00, 0x00, 0x00,
  0x0c, 0xd0, 0xff, 0xff, 0x14, 0x00, 0x00, 0x00, 0x11, 0x00, 0x00, 0x00,
  0x18, 0x00, 0x00, 0x00, 0x5c, 0x00, 0x00, 0x00, 0x4c, 0x00, 0x00, 0x00,
  0x02, 0x00, 0x00, 0x00, 0x01, 0x00, 0x00, 0x00, 0x03, 0x00, 0x00, 0x00,
  0x34, 0x00, 0x00, 0x00, 0x73, 0x65, 0x71, 0x75, 0x65, 0x6e, 0x74, 0x69,
  0x61, 0x6c, 0x2f, 0x64, 0x65, 0x6e, 0x73, 0x65, 0x5f, 0x31, 0x2f, 0x4d,
  0x61, 0x74, 0x4d, 0x75, 0x6c, 0x3b, 0x73, 0x65, 0x71, 0x75, 0x65, 0x6e,
  0x74, 0x69, 0x61, 0x6c, 0x2f, 0x64, 0x65, 0x6e, 0x73, 0x65, 0x5f, 0x31,
  0x2f, 0x42, 0x69, 0x61, 0x73, 0x41, 0x64, 0x64, 0x00, 0x00, 0x00, 0x00,
  0x02, 0x00, 0x00, 0x00, 0xff, 0xff, 0xff, 0xff, 0x03, 0x00, 0x00, 0x00,
  0x0c, 0xd0, 0xff, 0xff, 0xda, 0xfc, 0xff, 0xff, 0x00, 0x00, 0x00, 0x08,
  0x03, 0x00, 0x00, 0x00, 0x24, 0x00, 0x00, 0x00, 0x18, 0x00, 0x00, 0x00,
  0x0c, 0x00, 0x00, 0x00, 0x00, 0x00, 0x06, 0x00, 0x08, 0x00, 0x07, 0x00,
  0x06, 0x00, 0x00, 0x00, 0x00, 0x00, 0x00, 0x01, 0x01, 0x00, 0x00, 0x00,
  0x0f, 0x00, 0x00, 0x00, 0x03, 0x00, 0x00, 0x00, 0x0e, 0x00, 0x00, 0x00,
  0x06, 0x00, 0x00, 0x00, 0x03, 0x00, 0x00, 0x00, 0xe8, 0xfb, 0xff, 0xff,
  0x09, 0x00, 0x00, 0x00, 0x00, 0x00, 0x00, 0x09, 0x01, 0x00, 0x00, 0x00,
  0xcc, 0xd0, 0xff, 0xff, 0x14, 0x00, 0x00, 0x00, 0x10, 0x00, 0x00, 0x00,
  0x18, 0x00, 0x00, 0x00, 0x6c, 0x00, 0x00, 0x00, 0x5c, 0x00, 0x00, 0x00,
  0x02, 0x00, 0x00, 0x00, 0x01, 0x00, 0x00, 0x00, 0x10, 0x00, 0x00, 0x00,
  0x46, 0x00, 0x00, 0x00, 0x73, 0x65, 0x71, 0x75, 0x65, 0x6e, 0x74, 0x69,
  0x61, 0x6c, 0x2f, 0x64, 0x65, 0x6e, 0x73, 0x65, 0x2f, 0x4d, 0x61, 0x74,
  0x4d, 0x75, 0x6c, 0x3b, 0x73, 0x65, 0x71, 0x75, 0x65, 0x6e, 0x74, 0x69,
  0x61, 0x6c, 0x2f, 0x64, 0x65, 0x6e, 0x73, 0x65, 0x2f, 0x52, 0x65, 0x6c,
  0x75, 0x3b, 0x73, 0x65, 0x71, 0x75, 0x65, 0x6e, 0x74, 0x69, 0x61, 0x6c,
  0x2f, 0x64, 0x65, 0x6e, 0x73, 0x65, 0x2f, 0x42, 0x69, 0x61, 0x73, 0x41,
  0x64, 0x64, 0x00, 0x00, 0x02, 0x00, 0x00, 0x00, 0xff, 0xff, 0xff, 0xff,
  0x10, 0x00, 0x00, 0x00, 0xec, 0xd1, 0xff, 0xff, 0x00, 0x00, 0x0a, 0x00,
  0x10, 0x00, 0x04, 0x00, 0x08, 0x00, 0x0c, 0x00, 0x0a, 0x00, 0x00, 0x00,
  0x02, 0x00, 0x00, 0x00, 0x10, 0x00, 0x00, 0x00, 0x04, 0x00, 0x00, 0x00,
  0x01, 0x00, 0x00, 0x00, 0x0e, 0x00, 0x00, 0x00, 0x02, 0x00, 0x00, 0x00,
  0x0d, 0x00, 0x00, 0x00, 0x05, 0x00, 0x00, 0x00, 0xa8, 0xfc, 0xff, 0xff,
  0x16, 0x00, 0x00, 0x00, 0x00, 0x00, 0x00, 0x16, 0x01, 0x00, 0x00, 0x00,
  0x8c, 0xd1, 0xff, 0xff, 0x14, 0x00, 0x00, 0x00, 0x0f, 0x00, 0x00, 0x00,
  0x18, 0x00, 0x00, 0x00, 0x40, 0x00, 0x00, 0x00, 0x30, 0x00, 0x00, 0x00,
  0x02, 0x00, 0x00, 0x00, 0x01, 0x00, 0x00, 0x00, 0x70, 0x00, 0x00, 0x00,
  0x1a, 0x00, 0x00, 0x00, 0x73, 0x65, 0x71, 0x75, 0x65, 0x6e, 0x74, 0x69,
  0x61, 0x6c, 0x2f, 0x66, 0x6c, 0x61, 0x74, 0x74, 0x65, 0x6e, 0x2f, 0x52,
  0x65, 0x73, 0x68, 0x61, 0x70, 0x65, 0x00, 0x00, 0x02, 0x00, 0x00, 0x00,
  0xff, 0xff, 0xff, 0xff, 0x70, 0x00, 0x00, 0x00, 0x70, 0xd1, 0xff, 0xff,
  0x3e, 0xfe, 0xff, 0xff, 0x00, 0x00, 0x00, 0x05, 0x01, 0x00, 0x00, 0x00,
  0x38, 0x00, 0x00, 0x00, 0x2c, 0x00, 0x00, 0x00, 0x14, 0x00, 0x00, 0x00,
  0x00, 0x00, 0x0e, 0x00, 0x14, 0x00, 0x00, 0x00, 0x10, 0x00, 0x0c, 0x00,
  0x08, 0x00, 0x04, 0x00, 0x0e, 0x00, 0x00, 0x00, 0x03, 0x00, 0x00, 0x00,
  0x01, 0x00, 0x00, 0x00, 0x03, 0x00, 0x00, 0x00, 0x01, 0x00, 0x00, 0x00,
  0x01, 0x00, 0x00, 0x00, 0x0d, 0x00, 0x00, 0x00, 0x01, 0x00, 0x00, 0x00,
  0x0c, 0x00, 0x00, 0x00, 0x2c, 0xd2, 0xff, 0xff, 0x14, 0x00, 0x00, 0x00,
  0x0e, 0x00, 0x00, 0x00, 0x20, 0x00, 0x00, 0x00, 0x58, 0x00, 0x00, 0x00,
  0x40, 0x00, 0x00, 0x00, 0x04, 0x00, 0x00, 0x00, 0x01, 0x00, 0x00, 0x00,
  0x07, 0x00, 0x00, 0x00, 0x01, 0x00, 0x00, 0x00, 0x10, 0x00, 0x00, 0x00,
  0x22, 0x00, 0x00, 0x00, 0x73, 0x65, 0x71, 0x75, 0x65, 0x6e, 0x74, 0x69,
  0x61, 0x6c, 0x2f, 0x6d, 0x61, 0x78, 0x5f, 0x70, 0x6f, 0x6f, 0x6c, 0x69,
  0x6e, 0x67, 0x32, 0x64, 0x5f, 0x31, 0x2f, 0x4d, 0x61, 0x78, 0x50, 0x6f,
  0x6f, 0x6c, 0x00, 0x00, 0x04, 0x00, 0x00, 0x00, 0xff, 0xff, 0xff, 0xff,
  0x07, 0x00, 0x00, 0x00, 0x01, 0x00, 0x00, 0x00, 0x10, 0x00, 0x00, 0x00,
  0x28, 0xd2, 0xff, 0xff, 0x1a, 0xfe, 0xff, 0xff, 0x00, 0x00, 0x00, 0x01,
  0x24, 0x00, 0x00, 0x00, 0x18, 0x00, 0x00, 0x00, 0x04, 0x00, 0x00, 0x00,
  0x0c, 0xfe, 0xff, 0xff, 0x01, 0x00, 0x00, 0x00, 0x01, 0x00, 0x00, 0x00,
  0x00, 0x00, 0x00, 0x01, 0x01, 0x00, 0x00, 0x00, 0x0c, 0x00, 0x00, 0x00,
  0x03, 0x00, 0x00, 0x00, 0x0b, 0x00, 0x00, 0x00, 0x09, 0x00, 0x00, 0x00,
  0x02, 0x00, 0x00, 0x00, 0xd4, 0xd2, 0xff, 0xff, 0x14, 0x00, 0x00, 0x00,
  0x0d, 0x00, 0x00, 0x00, 0x20, 0x00, 0x00, 0x00, 0xb8, 0x00, 0x00, 0x00,
  0xa0, 0x00, 0x00, 0x00, 0x04, 0x00, 0x00, 0x00, 0x01, 0x00, 0x00, 0x00,
  0x15, 0x00, 0x00, 0x00, 0x01, 0x00, 0x00, 0x00, 0x10, 0x00, 0x00, 0x00,
  0x83, 0x00, 0x00, 0x00, 0x73, 0x65, 0x71, 0x75, 0x65, 0x6e, 0x74, 0x69,
  0x61, 0x6c, 0x2f, 0x63, 0x6f, 0x6e, 0x76, 0x32, 0x64, 0x5f, 0x31, 0x2f,
  0x52, 0x65, 0x6c, 0x75, 0x3b, 0x73, 0x65, 0x71, 0x75, 0x65, 0x6e, 0x74,
  0x69, 0x61, 0x6c, 0x2f, 0x63, 0x6f, 0x6e, 0x76, 0x32, 0x64, 0x5f, 0x31,
  0x2f, 0x42, 0x69, 0x61, 0x73, 0x41, 0x64, 0x64, 0x3b, 0x73, 0x65, 0x71,
  0x75, 0x65, 0x6e, 0x74, 0x69, 0x61, 0x6c, 0x2f, 0x63, 0x6f, 0x6e, 0x76,
  0x32, 0x64, 0x5f, 0x31, 0x2f, 0x43, 0x6f, 0x6e, 0x76, 0x32, 0x44, 0x3b,
  0x73, 0x65, 0x71, 0x75, 0x65, 0x6e, 0x74, 0x69, 0x61, 0x6c, 0x2f, 0x63,
  0x6f, 0x6e, 0x76, 0x32, 0x64, 0x5f, 0x31, 0x2f, 0x42, 0x69, 0x61, 0x73,
  0x41, 0x64, 0x64, 0x2f, 0x52, 0x65, 0x61, 0x64, 0x56, 0x61, 0x72, 0x69,
  0x61, 0x62, 0x6c, 0x65, 0x4f, 0x70, 0x2f, 0x72, 0x65, 0x73, 0x6f, 0x75,
  0x72, 0x63, 0x65, 0x00, 0x04, 0x00, 0x00, 0x00, 0xff, 0xff, 0xff, 0xff,
  0x15, 0x00, 0x00, 0x00, 0x01, 0x00, 0x00, 0x00, 0x10, 0x00, 0x00, 0x00,
  0x40, 0xd4, 0xff, 0xff, 0x00, 0x00, 0x0e, 0x00, 0x1a, 0x00, 0x08, 0x00,
  0x0c, 0x00, 0x10, 0x00, 0x07, 0x00, 0x14, 0x00, 0x0e, 0x00, 0x00, 0x00,
  0x00, 0x00, 0x00, 0x05, 0x01, 0x00, 0x00, 0x00, 0x3c, 0x00, 0x00, 0x00,
  0x30, 0x00, 0x00, 0x00, 0x14, 0x00, 0x00, 0x00, 0x00, 0x00, 0x0e, 0x00,
  0x18, 0x00, 0x17, 0x00, 0x10, 0x00, 0x0c, 0x00, 0x08, 0x00, 0x04, 0x00,
  0x0e, 0x00, 0x00, 0x00, 0x03, 0x00, 0x00, 0x00, 0x03, 0x00, 0x00, 0x00,
  0x03, 0x00, 0x00, 0x00, 0x03, 0x00, 0x00, 0x00, 0x00, 0x00, 0x00, 0x01,
  0x01, 0x00, 0x00, 0x00, 0x0b, 0x00, 0x00, 0x00, 0x01, 0x00, 0x00, 0x00,
  0x0a, 0x00, 0x00, 0x00, 0x2c, 0xff, 0xff, 0xff, 0x11, 0x00, 0x00, 0x00,
  0x00, 0x00, 0x00, 0x11, 0x01, 0x00, 0x00, 0x00, 0x10, 0xd4, 0xff, 0xff,
  0x14, 0x00, 0x00, 0x00, 0x0c, 0x00, 0x00, 0x00, 0x20, 0x00, 0x00, 0x00,
  0x58, 0x00, 0x00, 0x00, 0x40, 0x00, 0x00, 0x00, 0x04, 0x00, 0x00, 0x00,
  0x01, 0x00, 0x00, 0x00, 0x15, 0x00, 0x00, 0x00, 0x01, 0x00, 0x00, 0x00,
  0x08, 0x00, 0x00, 0x00, 0x20, 0x00, 0x00, 0x00, 0x73, 0x65, 0x71, 0x75,
  0x65, 0x6e, 0x74, 0x69, 0x61, 0x6c, 0x2f, 0x6d, 0x61, 0x78, 0x5f, 0x70,
  0x6f, 0x6f, 0x6c, 0x69, 0x6e, 0x67, 0x32, 0x64, 0x2f, 0x4d, 0x61, 0x78,
  0x50, 0x6f, 0x6f, 0x6c, 0x00, 0x00, 0x00, 0x00, 0x04, 0x00, 0x00, 0x00,
  0xff, 0xff, 0xff, 0xff, 0x15, 0x00, 0x00, 0x00, 0x01, 0x00, 0x00, 0x00,
  0x08, 0x00, 0x00, 0x00, 0x1c, 0xd5, 0xff, 0xff, 0x00, 0x00, 0x0e, 0x00,
  0x14, 0x00, 0x00, 0x00, 0x08, 0x00, 0x0c, 0x00, 0x07, 0x00, 0x10, 0x00,
  0x0e, 0x00, 0x00, 0x00, 0x00, 0x00, 0x00, 0x01, 0x30, 0x00, 0x00, 0x00,
  0x24, 0x00, 0x00, 0x00, 0x10, 0x00, 0x00, 0x00, 0x0c, 0x00, 0x10, 0x00,
  0x00, 0x00, 0x04, 0x00, 0x08, 0x00, 0x0f, 0x00, 0x0c, 0x00, 0x00, 0x00,
  0x01, 0x00, 0x00, 0x00, 0x01, 0x00, 0x00, 0x00, 0x00, 0x00, 0x00, 0x01,
  0x01, 0x00, 0x00, 0x00, 0x0a, 0x00, 0x00, 0x00, 0x03, 0x00, 0x00, 0x00,
  0x00, 0x00, 0x00, 0x00, 0x08, 0x00, 0x00, 0x00, 0x01, 0x00, 0x00, 0x00,
  0x0c, 0x00, 0x10, 0x00, 0x0b, 0x00, 0x00, 0x00, 0x0c, 0x00, 0x04, 0x00,
  0x0c, 0x00, 0x00, 0x00, 0x03, 0x00, 0x00, 0x00, 0x00, 0x00, 0x00, 0x03,
  0x01, 0x00, 0x00, 0x00, 0xf0, 0xd4, 0xff, 0xff, 0x14, 0x00, 0x00, 0x00,
  0x0b, 0x00, 0x00, 0x00, 0x20, 0x00, 0x00, 0x00, 0xb0, 0x00, 0x00, 0x00,
  0x98, 0x00, 0x00, 0x00, 0x04, 0x00, 0x00, 0x00, 0x01, 0x00, 0x00, 0x00,
  0x40, 0x00, 0x00, 0x00, 0x03, 0x00, 0x00, 0x00, 0x08, 0x00, 0x00, 0x00,
  0x7b, 0x00, 0x00, 0x00, 0x73, 0x65, 0x71, 0x75, 0x65, 0x6e, 0x74, 0x69,
  0x61, 0x6c, 0x2f, 0x63, 0x6f, 0x6e, 0x76, 0x32, 0x64, 0x2f, 0x52, 0x65,
  0x6c, 0x75, 0x3b, 0x73, 0x65, 0x71, 0x75, 0x65, 0x6e, 0x74, 0x69, 0x61,
  0x6c, 0x2f, 0x63, 0x6f, 0x6e, 0x76, 0x32, 0x64, 0x2f, 0x42, 0x69, 0x61,
  0x73, 0x41, 0x64, 0x64, 0x3b, 0x73, 0x65, 0x71, 0x75, 0x65, 0x6e, 0x74,
  0x69, 0x61, 0x6c, 0x2f, 0x63, 0x6f, 0x6e, 0x76, 0x32, 0x64, 0x2f, 0x43,
  0x6f, 0x6e, 0x76, 0x32, 0x44, 0x3b, 0x73, 0x65, 0x71, 0x75, 0x65, 0x6e,
  0x74, 0x69, 0x61, 0x6c, 0x2f, 0x63, 0x6f, 0x6e, 0x76, 0x32, 0x64, 0x2f,
  0x42, 0x69, 0x61, 0x73, 0x41, 0x64, 0x64, 0x2f, 0x52, 0x65, 0x61, 0x64,
  0x56, 0x61, 0x72, 0x69, 0x61, 0x62, 0x6c, 0x65, 0x4f, 0x70, 0x2f, 0x72,
  0x65, 0x73, 0x6f, 0x75, 0x72, 0x63, 0x65, 0x00, 0x04, 0x00, 0x00, 0x00,
  0xff, 0xff, 0xff, 0xff, 0x40, 0x00, 0x00, 0x00, 0x03, 0x00, 0x00, 0x00,
  0x08, 0x00, 0x00, 0x00, 0x44, 0xd5, 0xff, 0xff, 0x4e, 0xd6, 0xff, 0xff,
  0x04, 0x00, 0x00, 0x00, 0x00, 0x08, 0x00, 0x00, 0xd2, 0xae, 0xa7, 0xbe,
  0x50, 0xd4, 0x04, 0x3f, 0xeb, 0xf2, 0x5a, 0xbd, 0xf8, 0x00, 0xe7, 0x3e,
  0x24, 0xec, 0x82, 0x3d, 0xed, 0x99, 0x58, 0x3e, 0xae, 0x91, 0x32, 0xbd,
  0xe7, 0x58, 0xd5, 0xbd, 0x50, 0x9a, 0x68, 0xbe, 0x86, 0x15, 0xf4, 0x3d,
  0xfb, 0xe9, 0x26, 0xbf, 0x5f, 0xbe, 0x42, 0x3e, 0xbd, 0x41, 0x35, 0xbe,
  0x85, 0x95, 0x36, 0xbd, 0xc3, 0x20, 0xf1, 0xbb, 0xe0, 0x68, 0x30, 0xbd,
  0x28, 0x31, 0xd8, 0x3d, 0x42, 0x23, 0xc6, 0xbe, 0x65, 0x48, 0xf6, 0x3a,
  0xc8, 0xc9, 0xc0, 0xbd, 0xcb, 0x81, 0xcb, 0xbe, 0x6d, 0x92, 0x5a, 0xbd,
  0x41, 0xad, 0x15, 0x3d, 0x3f, 0xee, 0x16, 0x3c, 0x83, 0x75, 0xab, 0x3d,
  0x78, 0xed, 0x46, 0xbf, 0xc8, 0x67, 0x12, 0x3d, 0x98, 0x40, 0x76, 0xbd,
  0x91, 0x00, 0xd9, 0xbe, 0x02, 0x8c, 0x4f, 0xbe, 0x40, 0x6f, 0x03, 0x3d,
  0x3f, 0x48, 0xd3, 0x3c, 0xb7, 0x7f, 0xbd, 0xbd, 0xf2, 0x79, 0x94, 0xbf,
  0x6b, 0x77, 0x40, 0xbe, 0x01, 0xf4, 0x42, 0xbd, 0x7d, 0x8c, 0xce, 0xbd,
  0x33, 0xf1, 0x63, 0xbe, 0x36, 0x01, 0x8f, 0xbe, 0x68, 0x34, 0x70, 0xbe,
  0x0d, 0xc1, 0x1a, 0x3f, 0xae, 0xb6, 0x03, 0x3f, 0x65, 0x5a, 0x8d, 0x3e,
  0x5b, 0xec, 0x8e, 0x3e, 0xbf, 0xdb, 0x91, 0x3c, 0xc0, 0x21, 0x6f, 0xbe,
  0xca, 0x5d, 0xfa, 0xbe, 0x28, 0xad, 0x2c, 0xbd, 0xb5, 0x2b, 0x15, 0xbf,
  0xc7, 0xd4, 0x4e, 0x3e, 0x95, 0x42, 0x74, 0xbe, 0x5d, 0x22, 0xbf, 0x3d,
  0x6c, 0x4f, 0x35, 0x3e, 0xc7, 0x38, 0x9c, 0x3d, 0x8f, 0xd3, 0x90, 0xbe,
  0x2e, 0xf8, 0xc6, 0xbd, 0xb0, 0xab, 0xb6, 0x3d, 0x72, 0x20, 0xe1, 0x3d,
  0x47, 0x02, 0xf1, 0xbe, 0xbb, 0x77, 0x54, 0x3d, 0xbd, 0xc9, 0x47, 0xbe,
  0x3b, 0x55, 0x03, 0x3e, 0x28, 0x91, 0x26, 0x3c, 0x77, 0x75, 0x18, 0xbe,
  0xb0, 0x80, 0xa7, 0x3e, 0xf4, 0xe7, 0x89, 0x3e, 0xe6, 0x13, 0x2a, 0x3e,
  0x34, 0x09, 0x6f, 0x3d, 0xf7, 0x33, 0xc4, 0x3e, 0x0f, 0xa9, 0xc1, 0x3c,
  0xad, 0x5c, 0x26, 0x3e, 0xf1, 0x5d, 0x6c, 0xbe, 0x81, 0xa4, 0xf3, 0xbd,
  0xdf, 0xdf, 0xba, 0xbc, 0x74, 0xfc, 0x8e, 0xbe, 0x0c, 0xa5, 0xab, 0x3e,
  0xcd, 0x93, 0x2c, 0x3e, 0xf7, 0x7b, 0xa3, 0x3d, 0xef, 0xcc, 0xb0, 0xbd,
  0x26, 0x46, 0xd4, 0xbe, 0x52, 0xc1, 0xe5, 0x3c, 0x2e, 0x0d, 0x19, 0x3e,
  0x39, 0x50, 0x4b, 0xbd, 0x10, 0x18, 0xf4, 0x3d, 0x32, 0x0a, 0xa7, 0xbe,
  0xb6, 0xcb, 0x00, 0xbe, 0x86, 0xa9, 0xe1, 0xbc, 0xb7, 0x56, 0xdd, 0xbe,
  0x57, 0x51, 0xd1, 0x3d, 0x40, 0x91, 0x51, 0x3e, 0x29, 0x2d, 0x26, 0xbd,
  0x3f, 0xe3, 0xd8, 0x3c, 0x23, 0xb8, 0x26, 0x3e, 0x49, 0xbe, 0x1a, 0x3d,
  0xb1, 0x9d, 0x31, 0x3e, 0xf8, 0x73, 0xf6, 0xbe, 0x3c, 0x5a, 0x0f, 0xbf,
  0x67, 0xbe, 0x08, 0xbf, 0xb0, 0x0b, 0xcd, 0xbe, 0xa9, 0xa8, 0x46, 0xbf,
  0xa5, 0x10, 0x5d, 0xbd, 0xe2, 0xcf, 0x51, 0xbe, 0x82, 0x95, 0xf8, 0xbe,
  0x17, 0x1c, 0x04, 0xbe, 0x06, 0xf5, 0xa9, 0x3e, 0xc4, 0x7c, 0xc7, 0xbd,
  0x3b, 0xce, 0x9e, 0xbb, 0x14, 0x0a, 0x8f, 0x3e, 0xe5, 0x7f, 0xdb, 0xbd,
  0x5a, 0x88, 0xe6, 0xbe, 0xca, 0xba, 0xd3, 0xbe, 0x69, 0x77, 0xbe, 0xbd,
  0x3f, 0xee, 0x7e, 0x3e, 0xe8, 0xdc, 0x52, 0x3e, 0xcf, 0xd1, 0xb4, 0x3e,
  0xc1, 0x2a, 0x79, 0x3e, 0xe8, 0x86, 0x48, 0x3e, 0x74, 0x60, 0xf1, 0xbd,
  0x0a, 0xbd, 0xa2, 0xbe, 0xf6, 0xcf, 0x8d, 0x3d, 0xaf, 0x19, 0x40, 0xbf,
  0x46, 0x81, 0x2a, 0x3e, 0xcf, 0xca, 0xec, 0xbe, 0x58, 0x48, 0x19, 0x3b,
  0xe6, 0xae, 0x94, 0xba, 0x13, 0x10, 0x70, 0x3e, 0x43, 0x76, 0x0d, 0xbe,
  0xbb, 0xf4, 0xce, 0xbd, 0xf3, 0x3b, 0x6c, 0xbe, 0x90, 0x4c, 0x4b, 0xbd,
  0x20, 0xb1, 0xf1, 0xbe, 0xc5, 0x9d, 0xa6, 0xbe, 0x81, 0xb4, 0xd0, 0xbe,
  0x6a, 0x95, 0x4b, 0x3d, 0xa5, 0x7b, 0x20, 0xbd, 0x1b, 0x8e, 0x9b, 0xbd,
  0x25, 0xd4, 0xa8, 0xbd, 0xdc, 0xef, 0x53, 0x3e, 0xe3, 0x02, 0x41, 0xbd,
  0x60, 0x6f, 0x5d, 0x3e, 0xf4, 0x03, 0x14, 0xbf, 0x0b, 0x62, 0x66, 0x3c,
  0xc2, 0x0b, 0x18, 0xbd, 0xef, 0xb5, 0x90, 0xbc, 0xf6, 0x7a, 0x68, 0x3d,
  0xa0, 0x0c, 0x1a, 0x3e, 0x2b, 0xee, 0xa3, 0x3e, 0xec, 0x01, 0xab, 0x3e,
  0x99, 0x57, 0x27, 0xbf, 0x94, 0x9a, 0x08, 0x3e, 0x1f, 0x56, 0x45, 0x3e,
  0xd6, 0xcd, 0xd2, 0x3d, 0xf7, 0xcb, 0x91, 0x3d, 0x7b, 0x6c, 0xc3, 0xbe,
  0x56, 0x4d, 0x17, 0x3e, 0x53, 0x4f, 0xfa, 0x3d, 0xc3, 0x89, 0x09, 0xbf,
  0xb4, 0xb1, 0xb3, 0xbe, 0x87, 0x13, 0xc3, 0xbd, 0x60, 0x2a, 0x76, 0xbd,
  0x82, 0x38, 0xc7, 0xbe, 0x2c, 0x9f, 0x26, 0xbe, 0x49, 0x1f, 0x08, 0xbf,
  0x54, 0x08, 0xe5, 0xbe, 0xfa, 0x39, 0x89, 0xbe, 0x72, 0xbe, 0x8e, 0xbe,
  0x20, 0x1c, 0x88, 0xbe, 0x75, 0x07, 0x9f, 0xbe, 0xb0, 0xe1, 0xdd, 0xbd,
  0x06, 0x77, 0x0a, 0xbb, 0x4c, 0x38, 0x39, 0xbe, 0xb1, 0x58, 0x9b, 0xbd,
  0xd7, 0xef, 0x21, 0xbf, 0xe5, 0xdb, 0x61, 0xbd, 0xd5, 0x2a, 0x57, 0xbc,
  0x24, 0xe4, 0x9c, 0xbd, 0xe5, 0xd0, 0x5e, 0x3e, 0x26, 0x4d, 0x9c, 0x3d,
  0x3e, 0xa2, 0xb5, 0x3e, 0xa8, 0x57, 0x7d, 0x3b, 0x33, 0x0a, 0x81, 0xbe,
  0x56, 0x99, 0xe5, 0x3d, 0xa9, 0x7b, 0x17, 0x3c, 0xef, 0x55, 0x22, 0xbd,
  0x93, 0x0b, 0xea, 0xba, 0xee, 0x7d, 0x32, 0x3e, 0xf6, 0x10, 0x38, 0x3e,
  0x9b, 0xf9, 0x70, 0x3e, 0xe2, 0x30, 0x87, 0xbe, 0x86, 0x9f, 0x51, 0x3c,
  0x92, 0x52, 0x6d, 0x3e, 0xb0, 0x0e, 0x2f, 0xbd, 0x0c, 0x09, 0x0d, 0x3e,
  0x9e, 0x99, 0xbc, 0x3d, 0xc9, 0x06, 0xc4, 0xbd, 0x26, 0x78, 0x96, 0x3e,
  0x32, 0xc9, 0x0f, 0xbf, 0x5c, 0xfd, 0xbf, 0x3e, 0x03, 0x77, 0x84, 0x3e,
  0x6e, 0x5b, 0x2d, 0xbd, 0xdb, 0x76, 0x58, 0x3e, 0x50, 0x56, 0x1c, 0xbe,
  0x85, 0xab, 0x85, 0x3e, 0x87, 0xc0, 0x9e, 0x3e, 0x29, 0x6e, 0x8f, 0xbe,
  0xe0, 0x0a, 0xa5, 0xbe, 0xf0, 0x4e, 0x38, 0xbd, 0x83, 0x5f, 0xac, 0x3d,
  0x09, 0xaa, 0xd2, 0xbc, 0xe4, 0xc2, 0x8e, 0xbe, 0xed, 0x58, 0x18, 0x3e,
  0xca, 0xe6, 0x88, 0xbe, 0xa0, 0x37, 0x33, 0xbe, 0x49, 0x85, 0xb5, 0xbe,
  0xe4, 0x78, 0x03, 0xbe, 0xbc, 0xa4, 0x2d, 0x3d, 0xac, 0xd0, 0x9a, 0xbe,
  0x00, 0xba, 0x60, 0xbe, 0x33, 0xf4, 0x01, 0x3f, 0x32, 0xce, 0xa7, 0xbe,
  0xed, 0x17, 0xb2, 0x3b, 0xec, 0xb0, 0xa8, 0xbe, 0x71, 0x2a, 0x55, 0xbe,
  0x61, 0xa2, 0xa7, 0xbd, 0xd0, 0xb5, 0x96, 0x3c, 0x83, 0x4b, 0x9a, 0xbe,
  0x0c, 0xda, 0x11, 0xbe, 0xaf, 0x36, 0x99, 0xbe, 0x3b, 0xd5, 0x1a, 0xbe,
  0x00, 0xca, 0x55, 0xbe, 0x5f, 0x8a, 0x78, 0x3e, 0xb3, 0x1e, 0x3a, 0xbd,
  0xf4, 0x53, 0xb3, 0xbd, 0x88, 0xf7, 0xf8, 0xbd, 0x6a, 0x29, 0x0d, 0xbe,
  0x28, 0xd5, 0x03, 0xbe, 0x2c, 0x85, 0xd8, 0xbc, 0x08, 0x36, 0x85, 0x3d,
  0x2f, 0x65, 0xd0, 0x3e, 0xb8, 0xe4, 0x02, 0x3e, 0x9c, 0x30, 0x2e, 0xbd,
  0x13, 0x84, 0x54, 0xbd, 0x09, 0xa5, 0x73, 0x3d, 0x5a, 0x16, 0xc5, 0xbd,
  0x5e, 0xfa, 0x34, 0x3d, 0x11, 0x9f, 0xbb, 0xbd, 0x13, 0x78, 0xcd, 0xbd,
  0x9b, 0x2e, 0x06, 0xbc, 0xfc, 0xb3, 0x88, 0xbd, 0x89, 0x08, 0x92, 0xbc,
  0xbe, 0x8a, 0x0c, 0xbe, 0x80, 0xd0, 0xab, 0xbc, 0xed, 0x97, 0x89, 0xbd,
  0x38, 0xeb, 0x59, 0x3d, 0xba, 0xf9, 0x11, 0x3e, 0xa0, 0x1c, 0x67, 0x3e,
  0xec, 0x84, 0xd2, 0x3e, 0xbf, 0x41, 0xf0, 0xbd, 0x14, 0xa6, 0xc4, 0x3e,
  0xf6, 0x6b, 0x12, 0x3f, 0x98, 0x50, 0x48, 0xbd, 0x27, 0x34, 0x85, 0xbd,
  0x7b, 0x27, 0xbc, 0xbc, 0x31, 0xf8, 0x88, 0xbd, 0xff, 0x1a, 0x50, 0xbd,
  0x50, 0xea, 0x3d, 0xbe, 0xd4, 0xd0, 0xae, 0x3c, 0xab, 0xd6, 0x8b, 0xbd,
  0x85, 0xca, 0x7b, 0x3d, 0xb1, 0x8e, 0xb6, 0xbc, 0xb5, 0xe9, 0x96, 0xbd,
  0xd3, 0xa9, 0xb6, 0xbd, 0xa4, 0x83, 0x28, 0xbe, 0x55, 0x64, 0x91, 0xbe,
  0xe3, 0xd5, 0xc5, 0xbe, 0x0a, 0xce, 0x1d, 0xbf, 0xc5, 0xd7, 0xdd, 0xbd,
  0xa1, 0xc8, 0x1a, 0xbe, 0x07, 0xad, 0x75, 0xbd, 0x78, 0x4f, 0x1c, 0xbd,
  0x3d, 0x7c, 0x7d, 0xbe, 0x92, 0x63, 0xcd, 0xbd, 0x20, 0x76, 0x0b, 0xbf,
  0x89, 0x6a, 0x28, 0xbf, 0xc5, 0xa7, 0x70, 0xbd, 0xbd, 0x2b, 0xe7, 0xbd,
  0x6a, 0x7a, 0x4d, 0x3e, 0xb0, 0x3c, 0xab, 0x3c, 0x91, 0xa5, 0x61, 0x3d,
  0x16, 0x4a, 0x6a, 0xbf, 0xfa, 0xc3, 0xbe, 0xbe, 0x28, 0x01, 0xbc, 0xbe,
  0x8b, 0xc2, 0xe2, 0xbe, 0xdd, 0x48, 0x95, 0x3c, 0xce, 0xa8, 0xc2, 0x3b,
  0xab, 0x76, 0x6e, 0xbe, 0x94, 0x14, 0x3f, 0x3e, 0xb6, 0x7e, 0x5f, 0xbe,
  0x9e, 0x51, 0x01, 0x3e, 0x64, 0x3c, 0x29, 0x3e, 0x3f, 0x39, 0xa8, 0xba,
  0x59, 0x62, 0xe9, 0xbc, 0xbe, 0xe7, 0x5d, 0x3d, 0xf9, 0xa4, 0x5c, 0xbe,
  0xb1, 0x0c, 0xc9, 0xbd, 0xe2, 0x86, 0xa2, 0xbd, 0xe2, 0x6f, 0x65, 0xbd,
  0xaa, 0x11, 0x2c, 0xbe, 0x57, 0x56, 0x05, 0x3e, 0x2e, 0x02, 0x15, 0xbe,
  0x56, 0x07, 0x82, 0xbe, 0xa9, 0xab, 0x82, 0xbe, 0xfa, 0x0d, 0x1c, 0xbe,
  0x02, 0x5a, 0xe7, 0xbd, 0xea, 0xe2, 0x96, 0x3d, 0xf4, 0x28, 0x66, 0x3e,
  0x31, 0xdc, 0x44, 0xbe, 0x2a, 0x45, 0xb5, 0xbd, 0x19, 0x11, 0x27, 0xbd,
  0xe1, 0x28, 0x6a, 0xbe, 0x9d, 0xe1, 0x98, 0xbe, 0xf5, 0x49, 0xd8, 0xbd,
  0x69, 0x01, 0x8e, 0xbe, 0xfe, 0x42, 0x58, 0xbd, 0x90, 0x7a, 0x50, 0xbe,
  0x9e, 0x01, 0xa1, 0xbe, 0x38, 0x2b, 0x93, 0xbe, 0xd9, 0xe2, 0xe4, 0xbd,
  0xcd, 0x50, 0xa1, 0xbe, 0x0f, 0x5c, 0x15, 0xbe, 0x00, 0x3c, 0x65, 0x3e,
  0x79, 0x5f, 0x62, 0xbe, 0xf6, 0x4d, 0x3c, 0x3d, 0x9a, 0xee, 0xee, 0xbb,
  0x2e, 0xab, 0x6f, 0x3e, 0x22, 0xb5, 0xe9, 0x3d, 0x9c, 0x5e, 0x1f, 0xbe,
  0x88, 0xa7, 0x93, 0xbe, 0x29, 0xb0, 0xaa, 0xbd, 0xad, 0x1e, 0x01, 0xbe,
  0xb2, 0xeb, 0x13, 0x3e, 0xe4, 0xb5, 0x0e, 0xbe, 0xf7, 0xeb, 0x83, 0x3d,
  0x7a, 0x52, 0x1c, 0x3e, 0xe1, 0xb0, 0xa6, 0x3d, 0xd2, 0x3c, 0x8d, 0x3a,
  0x49, 0x63, 0xdc, 0x3d, 0xf0, 0x01, 0x5a, 0x3d, 0xc3, 0x6a, 0x6c, 0x3e,
  0x2c, 0x24, 0x8b, 0xbb, 0x58, 0x95, 0x83, 0x3b, 0x0f, 0x86, 0x37, 0x3d,
  0x39, 0x3b, 0x38, 0xbd, 0xcd, 0x86, 0x3d, 0x3d, 0xf3, 0xaa, 0x99, 0x3e,
  0x33, 0x35, 0x62, 0xbd, 0x66, 0xbf, 0xda, 0x3d, 0x61, 0xee, 0xd4, 0x3d,
  0x9f, 0x51, 0x98, 0xbd, 0xd9, 0x28, 0xa5, 0x3e, 0xdd, 0x46, 0x90, 0xbd,
  0xb4, 0xce, 0x19, 0x3e, 0x00, 0xcd, 0x26, 0xbc, 0x22, 0x90, 0xa9, 0x3b,
  0x1b, 0xb3, 0x94, 0x3d, 0xed, 0x06, 0xcc, 0x3d, 0x50, 0x1e, 0xa1, 0xbd,
  0x70, 0x64, 0x17, 0xbe, 0x79, 0x86, 0xaa, 0x3c, 0x81, 0xa7, 0xe2, 0xbd,
  0x90, 0x58, 0x7f, 0xbd, 0x30, 0xb3, 0xe6, 0x3c, 0x6b, 0xf5, 0x7a, 0x3c,
  0xba, 0x7b, 0x16, 0xbc, 0x37, 0x9e, 0x97, 0xbd, 0x32, 0x4c, 0x1d, 0xbe,
  0x53, 0x5a, 0x3b, 0x3c, 0xad, 0xa9, 0x17, 0x3e, 0xd8, 0xb4, 0x9b, 0xbb,
  0x91, 0x8a, 0x9a, 0x3d, 0x9b, 0x55, 0x90, 0x3d, 0x72, 0x68, 0x80, 0x3e,
  0x0f, 0xf6, 0xbb, 0xbd, 0x6a, 0xe6, 0xb5, 0xbd, 0x11, 0x90, 0x10, 0xbe,
  0x4c, 0xc0, 0xf2, 0xbe, 0x5b, 0xef, 0xd6, 0x3d, 0xa2, 0x3a, 0xf8, 0x3e,
  0x45, 0xa6, 0x2e, 0xbd, 0x9e, 0xa0, 0x6c, 0xbd, 0x74, 0x00, 0x1c, 0xbe,
  0x64, 0x0a, 0x32, 0xbd, 0x85, 0x0a, 0xdb, 0x3e, 0x9a, 0xd1, 0x0d, 0x3f,
  0xe1, 0x6b, 0x02, 0x3d, 0x43, 0xd1, 0x2a, 0xbe, 0x69, 0x3b, 0x6b, 0xbd,
  0xd1, 0xd7, 0xd8, 0xbd, 0x05, 0x3c, 0x97, 0xbd, 0x36, 0xbd, 0x2a, 0xbd,
  0x5f, 0x9b, 0xce, 0xbd, 0x2f, 0x49, 0x21, 0xbe, 0xe7, 0x6f, 0x84, 0xbc,
  0xc1, 0x1b, 0x32, 0x3e, 0x5f, 0xcd, 0xad, 0x3d, 0x8d, 0x57, 0x8e, 0xbc,
  0x42, 0xb1, 0x05, 0xbc, 0x95, 0xb3, 0xce, 0xbc, 0xd1, 0x3d, 0x78, 0x3d,
  0xf5, 0xd7, 0x0b, 0xbf, 0x77, 0x06, 0x57, 0x3d, 0x82, 0x43, 0x3b, 0xbe,
  0x48, 0xc5, 0xc5, 0xba, 0xde, 0x1a, 0x22, 0xbe, 0x65, 0x59, 0x51, 0xbc,
  0xfc, 0x5a, 0xb6, 0xbc, 0x24, 0xc6, 0xc2, 0x3d, 0x5a, 0xe5, 0xb7, 0x3d,
  0xde, 0x78, 0x18, 0xbd, 0x92, 0x3e, 0xa6, 0xbd, 0x0d, 0x44, 0xe9, 0xbd,
  0x25, 0x99, 0x97, 0xbd, 0xce, 0x8b, 0x00, 0xbf, 0x4a, 0x53, 0x4c, 0xbe,
  0x7c, 0x18, 0x99, 0x3d, 0x8a, 0x64, 0x8f, 0x3e, 0xd3, 0x54, 0x4a, 0x3e,
  0xc1, 0x1a, 0x2d, 0x3f, 0x0e, 0x4c, 0xd7, 0xbd, 0xfa, 0x81, 0x8d, 0xbe,
  0x47, 0x1a, 0xe1, 0xbe, 0xf7, 0x64, 0x06, 0xbe, 0x2c, 0x57, 0x77, 0x3e,
  0x16, 0x00, 0x9f, 0x3e, 0x38, 0xb1, 0x81, 0x3d, 0x44, 0xbb, 0x3b, 0x3d,
  0x65, 0x51, 0xb9, 0x3d, 0xc9, 0x4c, 0x1e, 0x3e, 0xf2, 0x10, 0xa5, 0xbe,
  0x31, 0x0a, 0x01, 0xbe, 0x8c, 0xc7, 0x01, 0xbd, 0x47, 0x18, 0x02, 0x3f,
  0xca, 0x92, 0x20, 0xbe, 0x11, 0x51, 0x9b, 0xbd, 0x6d, 0xfa, 0x5c, 0x3d,
  0xa6, 0x0c, 0x05, 0xbd, 0xc1, 0x05, 0x45, 0xbe, 0x43, 0xea, 0x4f, 0xbe,
  0xfb, 0x6f, 0x74, 0xbe, 0x37, 0xf5, 0x79, 0xbe, 0xde, 0x22, 0xc8, 0xbe,
  0xc1, 0x5c, 0x7e, 0xbd, 0x44, 0x08, 0xae, 0xbe, 0x42, 0xf7, 0x3e, 0xbf,
  0x6c, 0xcd, 0x9a, 0xbe, 0xb1, 0xc6, 0x80, 0xbe, 0xa6, 0xbb, 0x42, 0xbe,
  0x4c, 0x0b, 0x5f, 0xbe, 0x1b, 0x20, 0x89, 0x3d, 0x57, 0x45, 0x64, 0xbe,
  0xd0, 0xf0, 0x25, 0x3e, 0x9f, 0xf6, 0x1a, 0xbe, 0x2d, 0x1b, 0x2b, 0x3e,
  0xea, 0x9e, 0xaf, 0x3d, 0x8e, 0x03, 0x02, 0xbe, 0xa8, 0xaf, 0x13, 0xbe,
  0xd4, 0x6d, 0x0f, 0x3d, 0xec, 0x30, 0x47, 0xbe, 0xfe, 0xda, 0x62, 0xbc,
  0xa7, 0x7e, 0x94, 0xbe, 0x5e, 0x61, 0x9e, 0x3d, 0xbc, 0x1f, 0x85, 0x3e,
  0xde, 0xba, 0xb7, 0xbd, 0x34, 0x9d, 0x8e, 0x3d, 0xab, 0x56, 0xea, 0x3d,
  0x71, 0x07, 0x9e, 0x3d, 0x9b, 0x04, 0xba, 0xbd, 0x81, 0xdf, 0x25, 0xbe,
  0xfc, 0x87, 0x47, 0x3e, 0x76, 0x92, 0x70, 0xbd, 0x1b, 0x72, 0x50, 0xbe,
  0x29, 0xe6, 0x89, 0xbe, 0xaf, 0x9c, 0xb3, 0x3e, 0x6e, 0x04, 0xde, 0xbe,
  0x6c, 0x9d, 0x28, 0xbe, 0x6d, 0xb0, 0x6c, 0xbe, 0x54, 0xc2, 0x50, 0xbe,
  0x76, 0xad, 0xe8, 0xbd, 0xb4, 0xf2, 0xab, 0xbe, 0xc2, 0xec, 0xf3, 0x3b,
  0x02, 0xa7, 0x0a, 0x3e, 0x0f, 0x26, 0xbc, 0xbc, 0x99, 0xf5, 0x5b, 0xbc,
  0x99, 0x9c, 0x43, 0xbe, 0x0e, 0x3f, 0x32, 0xbe, 0xb2, 0xa9, 0x1c, 0xbe,
  0x12, 0xcb, 0x8e, 0xbe, 0xc0, 0xea, 0x99, 0x3e, 0xb6, 0x6e, 0xe6, 0xbe,
  0x98, 0xe6, 0xa7, 0x3e, 0x71, 0xda, 0x85, 0xbd, 0x04, 0xbf, 0xc0, 0x3d,
  0x62, 0xed, 0xb8, 0xbd, 0x3b, 0xc4, 0x0b, 0xbd, 0xb4, 0x48, 0x08, 0x3d,
  0xd7, 0x15, 0x6d, 0x3e, 0xa4, 0x78, 0x9c, 0xbe, 0x03, 0x16, 0x96, 0x3e,
  0xe0, 0x04, 0x8e, 0xbe, 0x47, 0x81, 0xd8, 0x3e, 0xd9, 0x45, 0xc3, 0x3e,
  0x0e, 0xda, 0x72, 0x3d, 0x26, 0xde, 0xff, 0xff, 0x10, 0x00, 0x00, 0x00,
  0x0a, 0x00, 0x00, 0x00, 0x1c, 0x00, 0x00, 0x00, 0x38, 0x00, 0x00, 0x00,
  0x04, 0x00, 0x00, 0x00, 0x10, 0x00, 0x00, 0x00, 0x04, 0x00, 0x00, 0x00,
  0x01, 0x00, 0x00, 0x00, 0x08, 0x00, 0x00, 0x00, 0x1a, 0x00, 0x00, 0x00,
  0x73, 0x65, 0x71, 0x75, 0x65, 0x6e, 0x74, 0x69, 0x61, 0x6c, 0x2f, 0x63,
  0x6f, 0x6e, 0x76, 0x32, 0x64, 0x5f, 0x31, 0x2f, 0x43, 0x6f, 0x6e, 0x76,
  0x32, 0x44, 0x00, 0x00, 0x9c, 0xdd, 0xff, 0xff, 0xa6, 0xde, 0xff, 0xff,
  0x04, 0x00, 0x00, 0x00, 0x80, 0x01, 0x00, 0x00, 0x26, 0x83, 0x03, 0xbd,
  0x05, 0xef, 0x7e, 0xbd, 0x17, 0x21, 0x33, 0xbe, 0xc1, 0xcf, 0x90, 0xbe,
  0x4f, 0x02, 0x42, 0xbe, 0x43, 0x03, 0xfd, 0xbe, 0xbe, 0x1d, 0x72, 0x3e,
  0x01, 0xdd, 0xbe, 0x3d, 0x2a, 0x5f, 0x22, 0x3e, 0xca, 0x13, 0x05, 0x3d,
  0x65, 0x8e, 0xe7, 0x3d, 0x3c, 0x34, 0xbc, 0x3e, 0x81, 0x62, 0x1d, 0x3d,
  0x53, 0x68, 0xb9, 0xbc, 0x00, 0x2c, 0xa0, 0xbc, 0xe1, 0x85, 0xe0, 0x3e,
  0xc5, 0xa6, 0xbb, 0x3d, 0xb3, 0x2f, 0xaa, 0xbd, 0xc7, 0x1c, 0x23, 0xbe,
  0xdc, 0x27, 0x83, 0x3e, 0xab, 0x5d, 0xe0, 0x3e, 0xf2, 0x18, 0xa6, 0xbe,
  0x5f, 0xa2, 0xaf, 0xbe, 0x0f, 0x4d, 0x74, 0xbe, 0x70, 0x44, 0xd8, 0xbe,
  0x92, 0xf9, 0x5a, 0x3d, 0x18, 0x9c, 0xb2, 0x3d, 0xb3, 0x37, 0x40, 0xbd,
  0xe5, 0xe7, 0x7a, 0xbd, 0xb8, 0x8e, 0x68, 0xbe, 0x4a, 0x31, 0x68, 0x3e,
  0x45, 0x2c, 0xb5, 0xbc, 0x88, 0x49, 0xb9, 0x3d, 0xfe, 0x56, 0xae, 0x3e,
  0xbe, 0x10, 0xbb, 0x3d, 0xe8, 0xeb, 0xc6, 0x3d, 0x75, 0x68, 0x88, 0x3c,
  0x92, 0x61, 0xd3, 0x3b, 0xe7, 0x58, 0x42, 0xbd, 0x1c, 0x6d, 0xcd, 0x3e,
  0xa9, 0xb9, 0x0f, 0xbd, 0x7d, 0x8c, 0x04, 0xbf, 0x6a, 0x7d, 0x23, 0xbe,
  0x56, 0x86, 0xee, 0xbb, 0x6a, 0xd9, 0x72, 0x3e, 0x86, 0xdc, 0x67, 0xbe,
  0x46, 0x22, 0xd8, 0x3c, 0x7a, 0x11, 0xdb, 0x3e, 0xf8, 0xd8, 0xa6, 0x3e,
  0xe2, 0xac, 0xca, 0xbd, 0x19, 0x85, 0x9d, 0x3d, 0x62, 0x4e, 0x67, 0x3e,
  0x41, 0x12, 0xb1, 0x3e, 0x6c, 0xd1, 0x89, 0x3d, 0x6d, 0x79, 0x3c, 0x39,
  0x54, 0x2e, 0x29, 0xbe, 0x55, 0x5c, 0x18, 0xbd, 0x6a, 0xe0, 0xcb, 0xbc,
  0x19, 0xfa, 0x05, 0x3e, 0xd7, 0xcd, 0x3c, 0xbd, 0xec, 0x81, 0x7d, 0x3e,
  0x92, 0x02, 0xfe, 0x3d, 0xdc, 0x38, 0x16, 0x3d, 0x23, 0x22, 0xd5, 0xbc,
  0x7a, 0x3d, 0x9a, 0x3e, 0xba, 0x37, 0xdf, 0x3d, 0xb5, 0x94, 0x10, 0x3d,
  0xc3, 0x72, 0x07, 0xbc, 0xf5, 0x85, 0x66, 0xbe, 0x00, 0x7b, 0xa3, 0x3d,
  0xf5, 0x02, 0xce, 0xbe, 0x52, 0x61, 0xfa, 0xbd, 0x54, 0x7f, 0x8a, 0x3d,
  0xc5, 0x19, 0xd5, 0xbd, 0x06, 0x25, 0x3a, 0xbe, 0xcd, 0x26, 0x9a, 0xbd,
  0xf8, 0xea, 0x2a, 0xbe, 0xf8, 0x1c, 0xa1, 0x3e, 0xe7, 0x5a, 0x2b, 0xbd,
  0x3a, 0xd7, 0x2c, 0xbd, 0x01, 0x28, 0x0e, 0xbd, 0xaa, 0xb2, 0x15, 0xbe,
  0x96, 0xd1, 0xaf, 0x3d, 0xac, 0x9a, 0x80, 0x3d, 0x5a, 0xbc, 0x7e, 0xbd,
  0x65, 0x89, 0x5a, 0x3c, 0xe5, 0xb2, 0x0b, 0x3e, 0x4f, 0x1a, 0xdc, 0xbd,
  0x1e, 0x2c, 0x89, 0x3c, 0x5d, 0xcd, 0x14, 0x3e, 0x18, 0x92, 0x95, 0xbc,
  0x22, 0xee, 0x80, 0x3d, 0xca, 0xf2, 0xf4, 0x3d, 0xa3, 0x16, 0xde, 0xbb,
  0xf1, 0x8e, 0xb3, 0x3d, 0x44, 0xc1, 0xea, 0x3d, 0xfe, 0xdf, 0xff, 0xff,
  0x10, 0x00, 0x00, 0x00, 0x09, 0x00, 0x00, 0x00, 0x1c, 0x00, 0x00, 0x00,
  0x38, 0x00, 0x00, 0x00, 0x04, 0x00, 0x00, 0x00, 0x08, 0x00, 0x00, 0x00,
  0x04, 0x00, 0x00, 0x00, 0x03, 0x00, 0x00, 0x00, 0x01, 0x00, 0x00, 0x00,
  0x18, 0x00, 0x00, 0x00, 0x73, 0x65, 0x71, 0x75, 0x65, 0x6e, 0x74, 0x69,
  0x61, 0x6c, 0x2f, 0x63, 0x6f, 0x6e, 0x76, 0x32, 0x64, 0x2f, 0x43, 0x6f,
  0x6e, 0x76, 0x32, 0x44, 0x00, 0x00, 0x00, 0x00, 0x74, 0xdf, 0xff, 0xff,
  0x7e, 0xe0, 0xff, 0xff, 0x04, 0x00, 0x00, 0x00, 0xc0, 0x00, 0x00, 0x00,
  0xfb, 0x18, 0xb9, 0x3e, 0x23, 0x4d, 0x98, 0x3e, 0xdc, 0xe0, 0x0a, 0x3e,
  0xe7, 0xc7, 0x36, 0x3e, 0x49, 0x07, 0x22, 0x3e, 0x5a, 0x92, 0xaa, 0x3e,
  0xac, 0xe7, 0x9e, 0xbd, 0xfa, 0x7f, 0x50, 0x3e, 0x7f, 0x83, 0xcd, 0xbe,
  0x3a, 0x90, 0xa4, 0x3e, 0x9a, 0xa0, 0x06, 0x3e, 0x7b, 0x11, 0x3e, 0xbe,
  0x5c, 0x63, 0x11, 0xbf, 0x0f, 0xfe, 0xfc, 0x3e, 0x81, 0x09, 0x4d, 0x3c,
  0xef, 0x07, 0xaa, 0x3b, 0x92, 0xf6, 0x64, 0xbc, 0xc3, 0x78, 0xf4, 0xbe,
  0xf8, 0x0a, 0x02, 0x3e, 0x5a, 0x8e, 0x93, 0x3e, 0x1a, 0x69, 0x4e, 0x3e,
  0x9f, 0x1a, 0xa2, 0x3e, 0x66, 0xf1, 0xbd, 0xbd, 0x8c, 0x30, 0xcf, 0x3d,
  0xf2, 0x73, 0xaa, 0x3d, 0xa7, 0xea, 0x02, 0xbe, 0x55, 0x25, 0xd5, 0xbe,
  0x98, 0xdc, 0x3d, 0xbf, 0xee, 0xe4, 0xcb, 0xbe, 0x32, 0x50, 0xf3, 0xbe,
  0x36, 0xef, 0xea, 0xbc, 0x1d, 0x69, 0x13, 0xbd, 0x7d, 0x12, 0xea, 0x3d,
  0x6a, 0xd0, 0x8e, 0xbe, 0x15, 0x00, 0x50, 0x3e, 0x58, 0x2c, 0x50, 0x3e,
  0x97, 0x5b, 0xf8, 0x3d, 0x79, 0xaf, 0xc3, 0x3e, 0xe9, 0xe5, 0xba, 0xbe,
  0x2b, 0xfa, 0x49, 0x3e, 0xa0, 0x71, 0xa5, 0x3e, 0x0c, 0x9e, 0xe6, 0xbe,
  0x0d, 0x39, 0x8f, 0xbe, 0x39, 0x76, 0xca, 0xbe, 0xfd, 0xe7, 0xd7, 0x3e,
  0x0f, 0x57, 0x48, 0x3e, 0x28, 0x33, 0x68, 0x3d, 0xec, 0xf9, 0x00, 0xbd,
  0x16, 0xe1, 0xff, 0xff, 0x10, 0x00, 0x00, 0x00, 0x08, 0x00, 0x00, 0x00,
  0x14, 0x00, 0x00, 0x00, 0x30, 0x00, 0x00, 0x00, 0x02, 0x00, 0x00, 0x00,
  0x03, 0x00, 0x00, 0x00, 0x10, 0x00, 0x00, 0x00, 0x19, 0x00, 0x00, 0x00,
  0x73, 0x65, 0x71, 0x75, 0x65, 0x6e, 0x74, 0x69, 0x61, 0x6c, 0x2f, 0x64,
  0x65, 0x6e, 0x73, 0x65, 0x5f, 0x31, 0x2f, 0x4d, 0x61, 0x74, 0x4d, 0x75,
  0x6c, 0x00, 0x00, 0x00, 0x84, 0xe0, 0xff, 0xff, 0x8e, 0xe1, 0xff, 0xff,
  0x04, 0x00, 0x00, 0x00, 0x00, 0x1c, 0x00, 0x00, 0x00, 0x15, 0xb8, 0xbc,
  0xf2, 0xb2, 0x9f, 0xbd, 0x81, 0xd9, 0x4d, 0x3d, 0xdd, 0x04, 0x3b, 0xbe,
  0xfe, 0x23, 0x5f, 0x3b, 0x5b, 0xa1, 0x3f, 0xbe, 0x33, 0xa1, 0x8e, 0xbd,
  0x43, 0x2c, 0xbf, 0xbd, 0xd7, 0xc5, 0x4d, 0xbe, 0xc9, 0x4e, 0x32, 0x3f,
  0xee, 0x7e, 0x3d, 0xbe, 0xcf, 0x8e, 0xd9, 0xbd, 0xbd, 0x8d, 0x85, 0xbe,
  0x47, 0xef, 0xf4, 0xbb, 0x3d, 0x96, 0x31, 0xbd, 0x3b, 0xd4, 0x0c, 0xbe,
  0x76, 0x55, 0x37, 0xbe, 0xd0, 0xa0, 0xe9, 0x3c, 0x8d, 0x76, 0x18, 0xbd,
  0x5e, 0xb8, 0xcd, 0x3d, 0x66, 0xe8, 0xa1, 0x3d, 0x2d, 0x2c, 0x9d, 0xbd,
  0x17, 0x85, 0x12, 0xbe, 0x1b, 0x41, 0x5f, 0xbd, 0xd7, 0x54, 0x31, 0x3d,
  0xd1, 0x33, 0xbc, 0x3f, 0x2f, 0x84, 0xfa, 0xbc, 0x1b, 0x44, 0xa8, 0xbd,
  0xc9, 0xf3, 0xb7, 0xbd, 0x41, 0xeb, 0xa2, 0xbe, 0xa2, 0xbf, 0xcf, 0x3d,
  0x34, 0x40, 0x1c, 0xbe, 0xf3, 0xce, 0x6b, 0x3d, 0xf0, 0x9a, 0x40, 0xbd,
  0xf9, 0x5e, 0x63, 0xbd, 0xcb, 0xab, 0x64, 0xbd, 0x69, 0x3f, 0x1c, 0x3d,
  0xd0, 0xfd, 0x43, 0xbe, 0xdb, 0xaa, 0x17, 0xbe, 0x71, 0xf2, 0x7b, 0xbe,
  0x64, 0x16, 0x8e, 0xbd, 0x6d, 0x3e, 0xe3, 0x3e, 0xb3, 0xf6, 0x0a, 0x3c,
  0xb1, 0x86, 0xfb, 0x3d, 0x57, 0xb8, 0x60, 0xbe, 0x1a, 0x20, 0x78, 0xbe,
  0x5f, 0x8a, 0x50, 0x3e, 0x75, 0x37, 0xbe, 0xbc, 0xd8, 0x34, 0xc3, 0x3d,
  0x23, 0x8d, 0x50, 0xbe, 0xd8, 0xa7, 0x61, 0x3e, 0xc6, 0x9f, 0x42, 0xbe,
  0x51, 0x89, 0xbe, 0xbd, 0xfc, 0x90, 0x16, 0xbe, 0xc6, 0xea, 0xf3, 0xbd,
  0x2b, 0xa5, 0x27, 0xbd, 0x7a, 0xa2, 0x50, 0xbe, 0x44, 0x3a, 0xf1, 0x3e,
  0x4a, 0x13, 0x99, 0x3c, 0xd6, 0x76, 0x42, 0xbe, 0x10, 0xf2, 0x6e, 0xbe,
  0x40, 0x9c, 0xce, 0xbb, 0xa1, 0x4c, 0x62, 0x3d, 0xef, 0x5a, 0xe5, 0x3c,
  0x6b, 0xdc, 0x5e, 0xbe, 0x5c, 0x63, 0x42, 0x3d, 0xb2, 0xc2, 0xb6, 0x3d,
  0x8c, 0x30, 0x06, 0xbc, 0x23, 0xd3, 0x9a, 0xbd, 0xae, 0xf6, 0x84, 0xbe,
  0x8b, 0x57, 0xa9, 0xbe, 0x7d, 0x73, 0x99, 0xbe, 0xd0, 0x0b, 0x8c, 0xbd,
  0x4f, 0xbc, 0x3a, 0x3f, 0xe9, 0xe8, 0x2d, 0xbe, 0xbf, 0xf4, 0xb8, 0xbc,
  0xd9, 0x34, 0xb0, 0xbe, 0x59, 0x0f, 0xc0, 0x3d, 0xe6, 0x6d, 0x81, 0x3e,
  0xc1, 0x48, 0x82, 0xbe, 0xd5, 0x78, 0x05, 0xbe, 0x42, 0x5f, 0xa6, 0xbd,
  0x3b, 0x70, 0x23, 0x3e, 0x4e, 0xb4, 0x14, 0x3b, 0x3d, 0x8a, 0x97, 0x3c,
  0x01, 0xdf, 0x20, 0xbe, 0x97, 0xef, 0x60, 0xbd, 0xc5, 0xf5, 0x14, 0xbe,
  0x0b, 0xb4, 0x31, 0x3c, 0x15, 0xbb, 0x91, 0x3f, 0x76, 0x5e, 0x9c, 0x3d,
  0x00, 0x15, 0xb8, 0xbe, 0x22, 0x9a, 0x54, 0xbe, 0x28, 0xdf, 0x65, 0xbd,
  0x2d, 0xe8, 0x82, 0x3e, 0xbb, 0x34, 0x40, 0xbe, 0xb7, 0x73, 0x31, 0xbe,
  0x34, 0x70, 0xcc, 0xbd, 0x69, 0xfd, 0xb3, 0xbe, 0x95, 0x9b, 0x5a, 0xbd,
  0x34, 0xc1, 0x52, 0xbd, 0xcd, 0x5a, 0x65, 0xbe, 0x85, 0xd8, 0x86, 0xbe,
  0xdc, 0xdd, 0x64, 0xbe, 0xda, 0xb5, 0x7a, 0xbe, 0xf4, 0x9a, 0xde, 0x3e,
  0x95, 0x31, 0xde, 0xbc, 0x62, 0xf8, 0xe5, 0xbc, 0x02, 0x07, 0x99, 0xbe,
  0x21, 0xe7, 0xa5, 0x3b, 0x23, 0x5c, 0xab, 0x3e, 0x6f, 0x8e, 0x1b, 0xbe,
  0xef, 0x58, 0xbe, 0x3d, 0x5d, 0x01, 0x44, 0xbe, 0x9a, 0x0c, 0x3a, 0xbe,
  0x43, 0xa8, 0x00, 0xbe, 0xaf, 0x78, 0x09, 0xbe, 0xef, 0x0a, 0xf8, 0xbd,
  0x14, 0x8f, 0xf9, 0x3c, 0x98, 0xa9, 0x83, 0xbe, 0x11, 0x4b, 0xa7, 0x3c,
  0xc6, 0x74, 0x12, 0x3f, 0x8a, 0xfe, 0x4f, 0xbe, 0x27, 0x71, 0x8c, 0xbe,
  0x59, 0x02, 0x5d, 0xbb, 0xb3, 0xda, 0x87, 0xbd, 0x42, 0x83, 0x22, 0xbd,
  0x58, 0x2e, 0x6d, 0xbc, 0x17, 0x96, 0xec, 0xbd, 0x3f, 0xbd, 0x91, 0x3d,
  0x76, 0x0a, 0x8c, 0xbe, 0x42, 0xd1, 0x54, 0xbd, 0xb5, 0x21, 0xb9, 0xbb,
  0x2c, 0xd8, 0xd7, 0x3d, 0x40, 0xbe, 0x92, 0xbd, 0x68, 0x20, 0x62, 0xbd,
  0x79, 0x53, 0xcc, 0xbd, 0x62, 0xb1, 0x81, 0x3f, 0xda, 0x27, 0x7e, 0xbd,
  0x45, 0x87, 0xff, 0xbd, 0xed, 0x31, 0x68, 0xbe, 0x04, 0xfa, 0xea, 0xbd,
  0xed, 0x59, 0x88, 0x3e, 0xd8, 0x9b, 0x92, 0xbc, 0xcc, 0x8b, 0x1f, 0x3e,
  0x1c, 0xfe, 0x2a, 0xbe, 0x62, 0x15, 0xa0, 0x3d, 0x8e, 0x55, 0xa8, 0xbd,
  0xb7, 0x5f, 0xe7, 0xbd, 0xef, 0x68, 0xc5, 0x3d, 0x1b, 0x7b, 0x82, 0x3d,
  0xbc, 0x26, 0x2b, 0xbd, 0x2b, 0x60, 0xf8, 0xbd, 0xac, 0x34, 0xf5, 0x3e,
  0x89, 0xbd, 0x13, 0x3c, 0x71, 0x8c, 0x86, 0xbe, 0x61, 0x71, 0x64, 0xbd,
  0xa2, 0xd6, 0xe4, 0x3d, 0x8c, 0xce, 0xce, 0xbd, 0x3e, 0x2e, 0x06, 0xbe,
  0xeb, 0xdf, 0xa9, 0x3d, 0x97, 0x44, 0x3d, 0xbe, 0x35, 0x23, 0xfc, 0x3d,
  0x2e, 0xdb, 0xf0, 0xbc, 0xc7, 0x2a, 0x36, 0xbe, 0x14, 0xb6, 0x74, 0xbc,
  0xb0, 0xef, 0x97, 0xbe, 0x54, 0x7c, 0xa4, 0xbe, 0x96, 0x82, 0x0b, 0xbe,
  0xbb, 0x96, 0xd3, 0x3f, 0x19, 0x05, 0x44, 0x3d, 0xd9, 0xe4, 0x85, 0xbe,
  0xe5, 0x77, 0x04, 0xbe, 0xef, 0xf0, 0xcf, 0x3d, 0x28, 0x58, 0x2a, 0x3e,
  0xc3, 0x7e, 0xe7, 0xbd, 0x00, 0xd7, 0xe2, 0xbd, 0x98, 0x4e, 0x5a, 0x3d,
  0x80, 0xdb, 0x78, 0x3d, 0x97, 0x5d, 0x99, 0xbd, 0xe2, 0x05, 0xaa, 0x3d,
  0x8c, 0x69, 0x86, 0x3d, 0x37, 0xc3, 0x55, 0x3d, 0xee, 0x88, 0xf2, 0xbd,
  0x22, 0x59, 0xe0, 0x3d, 0x43, 0xd8, 0x36, 0x3f, 0x06, 0x92, 0x12, 0xbe,
  0xb7, 0xa1, 0x02, 0x3a, 0x0b, 0x8d, 0x99, 0xbc, 0x5f, 0xde, 0x20, 0xbd,
  0xd0, 0xa6, 0x85, 0x3e, 0x0a, 0x77, 0xd3, 0x3c, 0x39, 0x28, 0x5d, 0xbe,
  0xd2, 0x70, 0x73, 0x3d, 0x0e, 0xc0, 0x87, 0xbd, 0x52, 0xd4, 0xf0, 0x3d,
  0x6d, 0xc9, 0x63, 0xbe, 0x44, 0x14, 0x23, 0xbe, 0xeb, 0x0f, 0x46, 0xbd,
  0xb5, 0xde, 0x12, 0x3c, 0x9a, 0x17, 0x52, 0x3d, 0x23, 0xda, 0x74, 0x3f,
  0x70, 0xea, 0x35, 0xbd, 0x65, 0x2a, 0xc8, 0x3c, 0x4d, 0x70, 0xb1, 0xbe,
  0x71, 0x7b, 0x6d, 0x3c, 0x38, 0xfd, 0xd4, 0x3d, 0x4c, 0x5f, 0x92, 0xbd,
  0x39, 0x2e, 0x4b, 0xbe, 0x75, 0x99, 0x5c, 0xbd, 0xec, 0x10, 0x20, 0xbd,
  0xd8, 0xdb, 0x92, 0x3c, 0x3d, 0x4e, 0x79, 0xbe, 0xd6, 0xab, 0x9b, 0xbd,
  0x4d, 0xc4, 0x90, 0xbe, 0x0e, 0x00, 0xb3, 0xbe, 0x78, 0xce, 0x78, 0xbe,
  0xd2, 0xf4, 0xc8, 0x3e, 0x7e, 0xeb, 0x52, 0x3e, 0xd6, 0xf6, 0x74, 0xbe,
  0xe5, 0x2b, 0x8a, 0xbe, 0x9c, 0x19, 0x01, 0xbe, 0x85, 0x1f, 0x8d, 0x3e,
  0x7a, 0xe6, 0xe4, 0xbd, 0xc5, 0xfc, 0x98, 0xbe, 0xee, 0x32, 0xa2, 0xbd,
  0x30, 0x1e, 0xe4, 0xbc, 0x18, 0x70, 0x49, 0xbe, 0xca, 0xa4, 0xb9, 0xbe,
  0x83, 0xc5, 0x43, 0xbd, 0x0c, 0x5f, 0x10, 0xbf, 0x04, 0x4b, 0xc9, 0x3d,
  0x83, 0x4e, 0xe5, 0xbe, 0xbb, 0x1a, 0xce, 0x3e, 0xec, 0x9d, 0x04, 0x3e,
  0x26, 0xb5, 0x2e, 0x3d, 0x08, 0x0b, 0xd0, 0xbe, 0x9e, 0x2e, 0xc8, 0xbd,
  0x11, 0x24, 0x0c, 0x3e, 0x38, 0x81, 0x8e, 0xbd, 0x2d, 0x57, 0x57, 0xbd,
  0xeb, 0x6b, 0x88, 0x3d, 0x16, 0x3d, 0x61, 0x3e, 0xee, 0x49, 0xb8, 0x3d,
  0xf9, 0x20, 0x8a, 0x3d, 0x20, 0x56, 0x98, 0x3e, 0x2e, 0xd6, 0x01, 0xbf,
  0x38, 0x7b, 0xeb, 0x3b, 0xc4, 0xb8, 0x82, 0xbe, 0x26, 0x80, 0x17, 0x3f,
  0x0e, 0xc3, 0x83, 0x3d, 0xbc, 0x71, 0x4d, 0x3d, 0x5a, 0xf7, 0xab, 0x3d,
  0x36, 0x99, 0x67, 0x3e, 0x1d, 0x38, 0x3b, 0x3e, 0x79, 0x30, 0xac, 0xbe,
  0x5c, 0xe4, 0xb2, 0xbd, 0x68, 0x21, 0x93, 0x3d, 0x1a, 0x7e, 0x7a, 0x3e,
  0xef, 0xba, 0xfd, 0xbd, 0x84, 0x23, 0xf3, 0x3c, 0xc4, 0x07, 0xcd, 0x3b,
  0x5a, 0x47, 0x97, 0xbe, 0x13, 0x24, 0xca, 0x3d, 0x22, 0x73, 0xe4, 0xbd,
  0xec, 0xb7, 0x23, 0x3f, 0x79, 0xed, 0x00, 0x3d, 0xea, 0xea, 0x35, 0x3e,
  0x54, 0x6a, 0x80, 0x3e, 0x00, 0xd6, 0xf0, 0x3d, 0xcf, 0x1b, 0x92, 0x3e,
  0x1b, 0xc4, 0x99, 0xbe, 0xdf, 0x2b, 0x56, 0xbe, 0x09, 0x77, 0x1a, 0x3e,
  0x9a, 0xdb, 0x85, 0x3e, 0x8b, 0x59, 0xd2, 0xbd, 0x75, 0xd4, 0x44, 0xbe,
  0xea, 0xe2, 0xc3, 0x3b, 0xb8, 0x2f, 0xd6, 0xbe, 0x26, 0xc8, 0xb2, 0x3d,
  0x93, 0xc7, 0x6a, 0x3c, 0x11, 0xe6, 0x48, 0x3f, 0xbd, 0x44, 0xa5, 0xbd,
  0x4f, 0x24, 0x37, 0x3e, 0x08, 0x48, 0x18, 0x3e, 0x97, 0x61, 0x87, 0x3e,
  0xa8, 0xc8, 0x32, 0x3b, 0xed, 0xb3, 0x99, 0xbd, 0x1f, 0x15, 0xfe, 0xbd,
  0xba, 0xf2, 0xf6, 0xbc, 0xe8, 0x31, 0x8d, 0x3e, 0x46, 0x30, 0x60, 0xbe,
  0x33, 0xd8, 0x27, 0xbe, 0x6f, 0x3e, 0x16, 0xbe, 0xea, 0x69, 0xf1, 0xbe,
  0xcc, 0x67, 0x0e, 0x3e, 0xd4, 0x67, 0x90, 0xbd, 0x5f, 0x9b, 0x34, 0x3f,
  0x42, 0xbc, 0xc4, 0xbd, 0xef, 0x37, 0x23, 0x3d, 0xac, 0xd8, 0x48, 0x3d,
  0xa5, 0xde, 0x64, 0x3e, 0x5e, 0x7b, 0x7d, 0xbd, 0x28, 0x6f, 0x84, 0xbe,
  0x02, 0x6b, 0x83, 0xbe, 0x32, 0x02, 0xfb, 0xbd, 0x21, 0xfa, 0x7d, 0x3e,
  0x74, 0x7f, 0x82, 0xbe, 0x1c, 0x02, 0xad, 0xbe, 0x7d, 0x2a, 0x61, 0xbe,
  0x93, 0xaf, 0x9a, 0xbe, 0xa0, 0x26, 0xb0, 0x3b, 0xab, 0xba, 0xed, 0x3d,
  0x0b, 0x03, 0x37, 0x3f, 0x14, 0x59, 0x50, 0xbc, 0x2d, 0x8f, 0x10, 0x3d,
  0xbb, 0x2d, 0x49, 0xbe, 0x7a, 0xa3, 0xdf, 0x3c, 0x88, 0xb5, 0xcc, 0xbd,
  0xd7, 0x72, 0x06, 0xbf, 0x24, 0xf1, 0x91, 0xbd, 0x08, 0x1d, 0x72, 0x3d,
  0x1f, 0xd6, 0x5c, 0x3d, 0x4b, 0x4f, 0x49, 0xbe, 0x2c, 0x2f, 0xca, 0xb9,
  0xa4, 0x97, 0x17, 0xbc, 0x22, 0x18, 0xcb, 0x3c, 0xe1, 0x8e, 0xe5, 0xbc,
  0x05, 0x1a, 0x95, 0xbe, 0xc5, 0x8a, 0x9b, 0x3e, 0xf0, 0x69, 0x00, 0xbe,
  0xfc, 0xd0, 0x99, 0xbc, 0x4a, 0xb7, 0xc7, 0xbd, 0x99, 0x6d, 0x51, 0xbd,
  0x4f, 0x34, 0x82, 0x3e, 0xbd, 0xac, 0x61, 0xbe, 0xdf, 0xd3, 0x09, 0xbe,
  0x8f, 0x78, 0x04, 0xbe, 0xc1, 0x88, 0x42, 0x3c, 0x1c, 0xca, 0x48, 0xbe,
  0x8d, 0x14, 0xa4, 0xbe, 0xf1, 0x19, 0x19, 0xbf, 0x6c, 0x39, 0x72, 0xbe,
  0x17, 0xe6, 0x9c, 0xbe, 0x9c, 0xd9, 0x68, 0x3d, 0x71, 0x0b, 0x56, 0x3d,
  0xc9, 0xe3, 0xfb, 0xbb, 0x9f, 0xc3, 0x7c, 0xbb, 0x59, 0xf0, 0xfd, 0xbe,
  0xff, 0x37, 0x88, 0xbe, 0xe2, 0xc7, 0x42, 0xbe, 0xd9, 0xf7, 0x0a, 0xbe,
  0xaa, 0xbe, 0xe0, 0x3b, 0x63, 0x0c, 0x40, 0xbe, 0xf5, 0xaa, 0x96, 0x3a,
  0x21, 0x90, 0x13, 0xbe, 0xc2, 0x8a, 0x88, 0xbe, 0x94, 0xe3, 0xb3, 0xbe,
  0xa0, 0x38, 0xb8, 0xbd, 0xd8, 0x10, 0x82, 0xbe, 0x55, 0x1f, 0x3b, 0xbd,
  0x87, 0xad, 0x97, 0xbe, 0x47, 0xe4, 0xe2, 0xbd, 0xde, 0x01, 0x5e, 0xbd,
  0xe8, 0xec, 0x54, 0xbd, 0x6a, 0xfb, 0x94, 0xbe, 0x6e, 0xf4, 0xb5, 0xbe,
  0x29, 0xff, 0x28, 0xbe, 0x6b, 0x4f, 0xc1, 0xbd, 0x4e, 0x67, 0xc5, 0xbd,
  0x24, 0x9e, 0xfd, 0x3a, 0x5e, 0x9c, 0xa2, 0xbd, 0x02, 0x27, 0xd3, 0xbd,
  0xaa, 0xeb, 0xb3, 0xbe, 0x28, 0x19, 0x9b, 0xbe, 0xab, 0x58, 0xb5, 0xbe,
  0x45, 0x25, 0x68, 0x3c, 0x2b, 0x73, 0x1c, 0xbd, 0x42, 0x38, 0x29, 0xbd,
  0xf4, 0x57, 0xc2, 0xbd, 0xe4, 0x15, 0x0b, 0xbe, 0x6c, 0x72, 0x2b, 0xbe,
  0xb5, 0xd0, 0x8a, 0xbd, 0x35, 0xd5, 0xaf, 0xbd, 0x64, 0x3d, 0x0c, 0xbe,
  0xf3, 0x70, 0xf1, 0xbe, 0xaa, 0x14, 0x91, 0xbd, 0x56, 0x06, 0x0d, 0xbe,
  0xa4, 0x9d, 0xad, 0xbe, 0x23, 0x23, 0x32, 0xbf, 0x73, 0xd4, 0x26, 0xbe,
  0x03, 0x09, 0xc0, 0xbe, 0xb9, 0x52, 0x76, 0xbe, 0x1b, 0xe5, 0x5d, 0xbe,
  0xa0, 0xfa, 0x5e, 0xbe, 0x0a, 0xa7, 0x1c, 0xbe, 0xcd, 0x67, 0xb5, 0xbe,
  0x97, 0xb7, 0x82, 0xbe, 0x02, 0xaf, 0xba, 0xbe, 0x28, 0xf6, 0xfb, 0xbe,
  0xcb, 0x56, 0x40, 0xbe, 0x44, 0x92, 0xd7, 0x3e, 0x71, 0x46, 0x51, 0xbd,
  0x69, 0x76, 0x9c, 0x3e, 0x9b, 0xb1, 0x85, 0x3c, 0xa3, 0x42, 0xc7, 0x3d,
  0x7a, 0xcb, 0x1d, 0xbe, 0x0c, 0xe9, 0x52, 0xbe, 0x17, 0x3e, 0x94, 0x3d,
  0x07, 0xad, 0xb6, 0x3e, 0x94, 0x0c, 0x86, 0x3c, 0xe4, 0x56, 0xa1, 0xbd,
  0x7d, 0xa8, 0xcd, 0xbe, 0xb7, 0x5f, 0xe0, 0xbc, 0xdc, 0x8d, 0xcb, 0xbc,
  0x8c, 0xbf, 0xe9, 0xbd, 0x34, 0x9a, 0xf3, 0x3d, 0xff, 0x9f, 0x95, 0x3e,
  0x17, 0x8b, 0x89, 0x3d, 0xba, 0x70, 0xe5, 0x3e, 0x70, 0x0c, 0xaf, 0xbd,
  0xb2, 0xce, 0xf5, 0xbc, 0xb5, 0x3e, 0xec, 0xbd, 0xcd, 0xb5, 0x2a, 0xbe,
  0x74, 0x34, 0x15, 0x3e, 0xfb, 0x8f, 0x0f, 0x3e, 0xf0, 0xe0, 0xba, 0xba,
  0x20, 0x81, 0x1e, 0xbc, 0xe8, 0x2b, 0x96, 0x3d, 0x69, 0x17, 0xc7, 0x3d,
  0x4f, 0x83, 0xcd, 0xbd, 0xdd, 0xa5, 0x55, 0xbd, 0x11, 0xe0, 0xa2, 0x3d,
  0x68, 0x3d, 0xd4, 0x3e, 0x28, 0x2a, 0x1f, 0x3e, 0xc2, 0x41, 0x75, 0x3e,
  0x30, 0x7d, 0xa2, 0xbd, 0xcf, 0x2e, 0x25, 0x3e, 0x13, 0x65, 0x00, 0xbc,
  0xb6, 0xe3, 0x28, 0x3e, 0x7d, 0x97, 0xb5, 0xbc, 0x8d, 0xad, 0x8d, 0xbe,
  0x6e, 0x45, 0x81, 0xbe, 0xd6, 0x62, 0x1f, 0x3d, 0x07, 0x66, 0x90, 0x3d,
  0x4f, 0x45, 0xdf, 0xbc, 0x56, 0xb1, 0x04, 0x3e, 0xb7, 0x97, 0x87, 0x3d,
  0x3e, 0xcb, 0x0a, 0xbd, 0xfc, 0x20, 0x2b, 0xbd, 0x5e, 0x1c, 0x92, 0xbd,
  0xa0, 0x60, 0x95, 0x3e, 0xc2, 0x85, 0x53, 0xbe, 0x0d, 0x77, 0xf8, 0xbe,
  0xe9, 0xcc, 0x75, 0x3d, 0xaf, 0xcd, 0xb4, 0xbe, 0xa6, 0xff, 0x83, 0x3e,
  0xe9, 0xa3, 0x4c, 0x3d, 0x2c, 0x12, 0xe0, 0xbd, 0x5c, 0x92, 0x02, 0xbd,
  0x8c, 0x26, 0x70, 0xbe, 0x56, 0xe1, 0x1b, 0xbd, 0xa9, 0x67, 0xbf, 0xbe,
  0x48, 0xc4, 0x67, 0xbe, 0xc2, 0x5f, 0x67, 0xbe, 0x1c, 0x7c, 0x72, 0xba,
  0x05, 0xb9, 0x79, 0xbd, 0x7b, 0xa7, 0x0b, 0xbd, 0x4b, 0xd7, 0x62, 0xbe,
  0xec, 0xec, 0xa6, 0x3c, 0x8e, 0xec, 0x14, 0xbe, 0x57, 0x89, 0xbb, 0xbe,
  0x84, 0xe2, 0x45, 0x3d, 0x40, 0x14, 0xa6, 0x3d, 0x4b, 0xc8, 0x17, 0xbe,
  0xc8, 0x99, 0xac, 0x3d, 0x1f, 0x69, 0xa9, 0xbd, 0x5d, 0x87, 0x76, 0x3d,
  0x5f, 0xc0, 0x15, 0xbe, 0x37, 0x9f, 0x09, 0xbe, 0x69, 0x5c, 0x27, 0x3e,
  0x80, 0x0e, 0x6e, 0xbd, 0x74, 0x2c, 0x14, 0xbd, 0x8e, 0x48, 0xa4, 0xbd,
  0x53, 0x8b, 0xb8, 0xbd, 0xe4, 0x35, 0x7f, 0xbe, 0xa1, 0x59, 0xa2, 0xbe,
  0x40, 0xf9, 0xbe, 0xbe, 0x7e, 0x8b, 0x1c, 0x3e, 0xc4, 0xdb, 0x7d, 0x3e,
  0x93, 0x63, 0x2c, 0xbe, 0xf0, 0xfe, 0x6c, 0xbd, 0xbb, 0x53, 0xdc, 0xbe,
  0xfd, 0x04, 0xd7, 0xbd, 0x36, 0xf9, 0x4b, 0xbe, 0xf0, 0x15, 0xc0, 0x3d,
  0x29, 0xd1, 0x91, 0xbd, 0x85, 0x27, 0xcb, 0xbe, 0x6c, 0x9d, 0xf2, 0xbd,
  0xc4, 0x0f, 0xc0, 0xbd, 0xed, 0xc2, 0x35, 0xbd, 0x7f, 0x28, 0xf0, 0xbd,
  0x67, 0xb4, 0x44, 0xbe, 0x70, 0xf7, 0x7d, 0xbe, 0x2f, 0xe4, 0xac, 0x3d,
  0x07, 0xbf, 0xcf, 0xbd, 0x94, 0x4f, 0x1e, 0xbe, 0x1e, 0x3b, 0xc2, 0xbd,
  0x12, 0x27, 0xd1, 0xbe, 0x80, 0x16, 0x8e, 0xbe, 0xac, 0xb3, 0xd8, 0x3b,
  0x08, 0xa9, 0x92, 0xbe, 0xc9, 0x59, 0xc5, 0xbe, 0x24, 0xd8, 0x6c, 0x3e,
  0xfb, 0xea, 0x03, 0xbd, 0x4c, 0x80, 0xe4, 0x3e, 0xd5, 0xf7, 0xa3, 0x3d,
  0x1b, 0x60, 0x1c, 0x3e, 0x7f, 0x65, 0x04, 0xbd, 0xa4, 0xbd, 0xfc, 0xbe,
  0xd7, 0xb0, 0xc3, 0x3d, 0xa7, 0xd6, 0xb9, 0x3e, 0xd1, 0xbc, 0x4d, 0x3e,
  0x74, 0x44, 0x2f, 0xbd, 0x4f, 0x58, 0xf0, 0xbd, 0x63, 0xca, 0xdc, 0x3d,
  0xf3, 0x9b, 0x49, 0xbd, 0x9f, 0xf1, 0xe6, 0x3d, 0x52, 0xf4, 0x5f, 0x3e,
  0xc3, 0x42, 0xbe, 0x3e, 0x01, 0xf2, 0xc0, 0x3d, 0x71, 0x98, 0xd1, 0x3e,
  0x73, 0x14, 0x08, 0xbe, 0xb1, 0xbf, 0xaa, 0xbd, 0x62, 0x36, 0x41, 0xbd,
  0x61, 0x4f, 0x2f, 0xbe, 0x68, 0xff, 0x89, 0xbd, 0x2f, 0xd3, 0x32, 0x3e,
  0x39, 0x21, 0xb6, 0x3c, 0xdc, 0xb3, 0x6e, 0x3c, 0x8f, 0x80, 0xdd, 0x3d,
  0x6e, 0xd2, 0xd1, 0x3d, 0x9e, 0x46, 0x98, 0x3d, 0x02, 0xe7, 0xec, 0x3d,
  0x6e, 0x09, 0xdd, 0x3d, 0xe4, 0xca, 0xde, 0x3d, 0x08, 0xc9, 0xcb, 0xbd,
  0xaf, 0x5d, 0xd8, 0x3e, 0xf8, 0x0b, 0xad, 0xbc, 0xf3, 0x6f, 0x1b, 0x3e,
  0xef, 0x43, 0xa4, 0x3d, 0xcd, 0x3e, 0x04, 0x3e, 0x95, 0x16, 0xa1, 0xbd,
  0x2c, 0xed, 0x71, 0x3d, 0x36, 0x4d, 0x5e, 0xbe, 0xdb, 0x12, 0xaf, 0xbd,
  0xc8, 0xb6, 0x9c, 0x3d, 0x9d, 0xc1, 0x1e, 0xbe, 0x85, 0xe3, 0x0c, 0x3e,
  0xf0, 0x05, 0xcf, 0x3d, 0xad, 0x7b, 0x91, 0xbe, 0xd4, 0x11, 0xd2, 0xbd,
  0xdc, 0xc1, 0x9c, 0x3d, 0xb5, 0x47, 0x6e, 0xbe, 0xac, 0x03, 0xb5, 0xbe,
  0x3f, 0xc4, 0x02, 0xbe, 0xce, 0x99, 0xe5, 0xbe, 0xc8, 0xce, 0x74, 0x3e,
  0xb1, 0xce, 0x00, 0xbf, 0xff, 0x04, 0x1a, 0x3f, 0x6f, 0xd9, 0x19, 0x3e,
  0xfc, 0xf9, 0x6a, 0x3e, 0x80, 0x34, 0x9b, 0xbe, 0x8a, 0xd9, 0x9b, 0xbd,
  0x84, 0x05, 0x60, 0x3e, 0x63, 0xdd, 0x0a, 0xbe, 0x47, 0x3e, 0x31, 0xbe,
  0xb8, 0xe9, 0xa8, 0x3d, 0x5a, 0xd7, 0x5c, 0x3e, 0x25, 0x9a, 0x40, 0x3e,
  0xfc, 0x1f, 0x16, 0xbe, 0x6f, 0xfa, 0x1a, 0x3e, 0xeb, 0xed, 0xd2, 0xbe,
  0x2b, 0xb9, 0x69, 0x3d, 0xb5, 0x54, 0x07, 0xbe, 0x37, 0x9b, 0xeb, 0x3e,
  0x58, 0x28, 0xa8, 0x3d, 0xc5, 0xf0, 0x45, 0xbd, 0x5f, 0x5a, 0x87, 0x3c,
  0x8f, 0x4f, 0xda, 0x3e, 0x93, 0x26, 0x4e, 0x3e, 0x2a, 0x89, 0xa3, 0xbe,
  0x80, 0x99, 0xaa, 0xbd, 0x4c, 0xa1, 0x6c, 0x3d, 0x7a, 0x91, 0xb9, 0x3e,
  0x88, 0x7c, 0x0d, 0x3e, 0xdb, 0xd6, 0x1b, 0xbe, 0x51, 0x40, 0xa1, 0xbd,
  0x55, 0x47, 0x7d, 0xbe, 0x80, 0x66, 0x02, 0x3d, 0x15, 0x5a, 0x15, 0xbe,
  0x37, 0xa8, 0x84, 0x3f, 0x68, 0x57, 0x04, 0x3c, 0x3b, 0x61, 0x71, 0x3c,
  0x4d, 0xd0, 0x92, 0x3e, 0xfc, 0xfd, 0xa0, 0x3e, 0xd7, 0x01, 0x5c, 0x3e,
  0x07, 0x84, 0x9c, 0xbe, 0x1c, 0x4b, 0x83, 0xbd, 0xce, 0xc8, 0x1f, 0x3e,
  0xa0, 0x91, 0x99, 0x3e, 0xd6, 0x2f, 0x06, 0x3c, 0xd5, 0x96, 0x8b, 0xbd,
  0x8b, 0xfb, 0x93, 0xbd, 0x53, 0x11, 0xa2, 0xbe, 0x6f, 0x5c, 0xb9, 0xbd,
  0x07, 0xc0, 0x7f, 0x3e, 0xd8, 0x45, 0x39, 0x3f, 0x2e, 0x62, 0x3f, 0x3d,
  0x65, 0x1e, 0x63, 0x39, 0xfa, 0x51, 0xe4, 0x3d, 0xdb, 0x79, 0x9e, 0x3e,
  0xea, 0x0f, 0xc5, 0x3e, 0x6e, 0x8a, 0x89, 0xbe, 0x80, 0xaf, 0x6e, 0xbd,
  0xca, 0x14, 0xd7, 0x3d, 0x27, 0x87, 0x99, 0x3e, 0x78, 0x07, 0x60, 0xbe,
  0x1f, 0xa0, 0x7a, 0xbe, 0x71, 0xa8, 0x5c, 0xbe, 0xad, 0x63, 0xb9, 0xbe,
  0x59, 0xa6, 0x17, 0xbc, 0xc4, 0xaf, 0xe8, 0xbd, 0xb1, 0x22, 0xeb, 0x3e,
  0x0c, 0xef, 0x39, 0xbb, 0x95, 0xd3, 0x81, 0x3d, 0x7d, 0x93, 0x17, 0x3d,
  0x81, 0xdf, 0x27, 0x3e, 0xb8, 0xf0, 0x39, 0x3e, 0x42, 0x08, 0x90, 0x3d,
  0xe5, 0x11, 0xb2, 0xbe, 0x2c, 0xd1, 0x52, 0xbe, 0x3e, 0xab, 0x63, 0x3d,
  0x3d, 0x68, 0x23, 0xbf, 0x6f, 0xbb, 0xe7, 0xbe, 0xf2, 0x8f, 0x1f, 0xbe,
  0x7d, 0xa0, 0xa6, 0xbe, 0x78, 0x37, 0x7e, 0xbc, 0x7b, 0x1b, 0x87, 0x3e,
  0x8b, 0x2d, 0xeb, 0x3e, 0x80, 0x98, 0xf1, 0xbd, 0x4e, 0x10, 0x52, 0xbd,
  0x2d, 0x6a, 0x13, 0xbe, 0x8c, 0x0f, 0xf9, 0x3c, 0x85, 0x62, 0x13, 0x3e,
  0xbf, 0x7e, 0x7b, 0xbd, 0xfd, 0x2f, 0x7a, 0xbd, 0xb9, 0x60, 0x68, 0xbe,
  0x62, 0x22, 0xc9, 0x3d, 0x51, 0x9b, 0x1d, 0xbf, 0x12, 0x98, 0xb1, 0xbc,
  0x3e, 0xb1, 0x23, 0xbd, 0x7d, 0xce, 0xbc, 0xbd, 0x20, 0xa4, 0xe9, 0xbc,
  0x7a, 0xc0, 0xeb, 0xbd, 0x05, 0x56, 0x4d, 0x3f, 0x27, 0x05, 0x9a, 0xbc,
  0x28, 0xec, 0xfa, 0x3d, 0x4b, 0x4a, 0x6c, 0xbd, 0xe9, 0x66, 0x51, 0xbd,
  0xb6, 0x88, 0x7f, 0x3e, 0x09, 0x39, 0xe1, 0xbd, 0x07, 0xfa, 0x7a, 0xbd,
  0x6d, 0x18, 0x1d, 0xbe, 0xe0, 0x45, 0x0d, 0xbc, 0x12, 0x5d, 0x19, 0xbb,
  0xed, 0x4f, 0x6a, 0xbe, 0x73, 0x78, 0x63, 0xbd, 0x64, 0xb8, 0x37, 0xbe,
  0x9a, 0x7a, 0xdc, 0xbd, 0xaa, 0x2f, 0xec, 0xbd, 0xb4, 0x59, 0x01, 0x3f,
  0x54, 0x1b, 0x14, 0xbe, 0xd9, 0xf3, 0x56, 0xbe, 0x64, 0xd6, 0xaa, 0xbb,
  0x6e, 0x32, 0x69, 0xbe, 0x9f, 0xca, 0xea, 0xbd, 0x7b, 0xd7, 0x22, 0xbc,
  0x38, 0x93, 0x55, 0xbe, 0x81, 0xc2, 0x82, 0x3d, 0x78, 0x19, 0xb7, 0x3d,
  0x9c, 0xe6, 0x21, 0x3e, 0x7a, 0xd1, 0x2d, 0xbe, 0x49, 0x33, 0xc5, 0xbd,
  0xdf, 0x37, 0x44, 0xbe, 0x38, 0xf1, 0x52, 0xbd, 0x60, 0xfa, 0x1a, 0xbe,
  0xe8, 0xf6, 0x2f, 0x3f, 0x25, 0x2f, 0x53, 0xbe, 0xcb, 0x7b, 0xa5, 0xbc,
  0x91, 0xd5, 0x3d, 0xbe, 0xf0, 0x9f, 0x09, 0xbe, 0xbb, 0x4f, 0xa6, 0x3d,
  0xf4, 0xcf, 0xa6, 0x3d, 0xfe, 0xff, 0x09, 0x3e, 0xa1, 0x99, 0x2b, 0xbe,
  0x71, 0x6c, 0x39, 0xbd, 0x09, 0xa1, 0x41, 0x3e, 0xed, 0xf2, 0x5a, 0x3d,
  0xe4, 0xd1, 0x4a, 0xbe, 0xa5, 0xeb, 0x43, 0xbe, 0xc5, 0x76, 0x73, 0xbd,
  0xa6, 0x61, 0x21, 0xbd, 0x66, 0x88, 0x02, 0x3f, 0x2c, 0x4a, 0x22, 0xbd,
  0xb6, 0x32, 0xbe, 0xbc, 0xff, 0xcc, 0x36, 0xbe, 0x7b, 0x5a, 0x18, 0xbd,
  0xba, 0x6b, 0x7c, 0x3d, 0x17, 0x11, 0x94, 0xbe, 0xa8, 0x6e, 0xc1, 0xbd,
  0xb0, 0x16, 0xc2, 0x3c, 0xd1, 0xf6, 0xb1, 0x3d, 0xfb, 0x1a, 0x94, 0xbd,
  0xa1, 0xdd, 0x80, 0xbe, 0xd1, 0x95, 0x5f, 0x3d, 0x75, 0x3d, 0x31, 0xbe,
  0x70, 0x05, 0x2d, 0xbe, 0xfb, 0x33, 0xde, 0x3d, 0x52, 0x45, 0x03, 0x3f,
  0x4e, 0xb6, 0x51, 0xbd, 0x77, 0x74, 0xf4, 0xbd, 0x68, 0x64, 0x98, 0xbe,
  0x64, 0x16, 0x1b, 0xbe, 0xd9, 0x48, 0x97, 0x3e, 0x62, 0x3d, 0x37, 0xbe,
  0xf7, 0x74, 0x3c, 0xbe, 0x49, 0x9c, 0xbc, 0x3d, 0x33, 0xa0, 0x66, 0xbd,
  0x06, 0x23, 0x90, 0xbd, 0x0a, 0xf0, 0x86, 0xbd, 0x49, 0xfe, 0x4c, 0xbe,
  0xed, 0xfd, 0x6b, 0xbe, 0xd2, 0x13, 0xd2, 0xbc, 0xf0, 0x22, 0xf8, 0x3d,
  0x08, 0x97, 0xd8, 0x3e, 0x94, 0x37, 0x46, 0xbe, 0xf0, 0x57, 0x58, 0x3d,
  0x90, 0xb7, 0x5c, 0xbd, 0x6d, 0xfe, 0x0e, 0x3e, 0x13, 0xd2, 0xe8, 0x3e,
  0x9d, 0x23, 0x62, 0xbe, 0xad, 0x03, 0xca, 0xbc, 0x97, 0x1c, 0x91, 0xbd,
  0x44, 0x1d, 0x67, 0xbd, 0xfe, 0x33, 0xcf, 0xbd, 0x81, 0x25, 0x96, 0xbe,
  0xa2, 0x4a, 0xc3, 0xbd, 0xc5, 0x12, 0xc5, 0xbd, 0x33, 0x4c, 0x52, 0xbd,
  0xdf, 0x5d, 0xd9, 0x3d, 0xc4, 0x05, 0xed, 0x3c, 0xa5, 0x04, 0x2b, 0xbd,
  0x09, 0xa8, 0x64, 0xbd, 0x16, 0x91, 0x42, 0xbe, 0x40, 0xe9, 0x23, 0x3e,
  0x06, 0xd2, 0xd0, 0x3d, 0x1d, 0x88, 0x2a, 0xbe, 0xb8, 0x38, 0xd6, 0xbd,
  0x93, 0xb5, 0x7e, 0xbe, 0xff, 0xaf, 0xeb, 0xbd, 0x8e, 0x57, 0x18, 0xbd,
  0x2b, 0xcf, 0x51, 0xbe, 0x39, 0x46, 0x24, 0xbd, 0x6e, 0x19, 0x03, 0xbe,
  0x2c, 0xc0, 0xa2, 0xbe, 0xb5, 0x8d, 0x03, 0x3e, 0xcc, 0x25, 0x9d, 0x3e,
  0xc7, 0xcc, 0x5c, 0x3e, 0xba, 0x55, 0x5e, 0xbe, 0xfc, 0x5e, 0x89, 0xbd,
  0x45, 0x65, 0x3a, 0xbd, 0x3f, 0x0c, 0x9e, 0x3e, 0x30, 0xbe, 0x65, 0x3d,
  0xe5, 0xd7, 0xff, 0xbd, 0xf8, 0x3a, 0x50, 0xbe, 0x3d, 0x6d, 0x22, 0xbe,
  0x1e, 0x4c, 0xcc, 0xbd, 0x76, 0xf4, 0x3c, 0x3e, 0xd6, 0x32, 0x59, 0x3e,
  0x8d, 0x53, 0x8e, 0x3d, 0x43, 0xb4, 0x21, 0x3e, 0xc5, 0x56, 0x90, 0xbb,
  0xa9, 0x77, 0x12, 0xbe, 0xa8, 0x91, 0x26, 0xbc, 0x85, 0x4c, 0x15, 0xbe,
  0x99, 0xec, 0x4d, 0xbd, 0xa9, 0xc2, 0x1c, 0xbe, 0x20, 0x60, 0x2f, 0x3d,
  0x2f, 0xc4, 0x67, 0xbd, 0x31, 0xfa, 0x92, 0x3c, 0xf3, 0x98, 0xd9, 0x3d,
  0x4b, 0xf5, 0x01, 0xbe, 0xd1, 0xde, 0xea, 0x3d, 0x30, 0xe7, 0x2c, 0x3e,
  0xc9, 0x82, 0x84, 0x3a, 0xab, 0x12, 0x43, 0x3d, 0x67, 0xcb, 0xba, 0xbb,
  0xf6, 0xf4, 0x14, 0xbe, 0xbb, 0x08, 0xac, 0xbe, 0xdd, 0x6c, 0x88, 0xbd,
  0xfe, 0xec, 0xc4, 0x3d, 0xdc, 0x4e, 0x36, 0xbd, 0xd8, 0xb1, 0xa1, 0xbd,
  0x49, 0xcb, 0xc1, 0xbb, 0xfe, 0xe2, 0x9b, 0x3d, 0xac, 0x53, 0xa5, 0x3d,
  0xa5, 0xb7, 0xb1, 0x3d, 0x27, 0x8a, 0x32, 0x3d, 0x06, 0x6a, 0x92, 0x3d,
  0x20, 0xeb, 0x42, 0xbb, 0x12, 0x73, 0xbc, 0x3d, 0x7e, 0x63, 0xdd, 0x3d,
  0x2d, 0x67, 0x8c, 0x3a, 0x45, 0x0c, 0xa7, 0xbd, 0xe0, 0x5f, 0x27, 0xbf,
  0x22, 0xfd, 0x00, 0xbd, 0x51, 0x59, 0xe5, 0x3d, 0xe0, 0xf8, 0xde, 0xbd,
  0x42, 0x5a, 0x54, 0x3e, 0xd4, 0x0e, 0x0c, 0xbd, 0xde, 0x2e, 0x16, 0x3f,
  0x3f, 0x1e, 0x04, 0x3f, 0x8a, 0x9b, 0xc2, 0xbd, 0xf0, 0x38, 0x15, 0x3e,
  0x5b, 0xcf, 0x53, 0x3e, 0x77, 0xa3, 0x8d, 0x3e, 0xe3, 0x57, 0x92, 0x3d,
  0x27, 0x81, 0x9e, 0x3e, 0x17, 0xe9, 0xf7, 0xbc, 0x44, 0xfa, 0x76, 0x3e,
  0xbb, 0x7a, 0xf9, 0xbe, 0x1e, 0xc6, 0x48, 0x3d, 0x6e, 0x8c, 0xe7, 0x3d,
  0x9d, 0xec, 0x2e, 0x3e, 0x5f, 0x78, 0x04, 0x3e, 0x83, 0x15, 0x1d, 0x3c,
  0x9b, 0xeb, 0x32, 0x3f, 0x7a, 0x2d, 0xbd, 0x3e, 0x34, 0xa7, 0xfe, 0xbe,
  0xbf, 0xcf, 0x4b, 0x3d, 0xaf, 0x3f, 0x2a, 0xbf, 0x65, 0xe5, 0xf3, 0x3d,
  0x06, 0x84, 0xc3, 0x3d, 0x41, 0x39, 0x24, 0x3e, 0xb7, 0xe2, 0x09, 0x3d,
  0xb3, 0x2a, 0x0e, 0x3e, 0x3e, 0xa0, 0x11, 0xbf, 0x1d, 0x79, 0xc1, 0xbc,
  0x52, 0xd6, 0x35, 0x3e, 0x4f, 0x3e, 0x19, 0x3e, 0xe9, 0x60, 0xd0, 0xbe,
  0xe2, 0x40, 0xc6, 0xbd, 0x8c, 0x83, 0x62, 0x3e, 0x07, 0x0e, 0xc9, 0xbc,
  0xc4, 0xa1, 0x70, 0xbe, 0xc3, 0x2e, 0x22, 0xbd, 0x9a, 0xbf, 0x1f, 0xbf,
  0x4d, 0x3d, 0xd9, 0x3d, 0xd2, 0x4a, 0xd6, 0x3c, 0x1f, 0x49, 0x36, 0x3e,
  0xfb, 0x8c, 0x70, 0x3d, 0x4a, 0xd3, 0x7d, 0x3e, 0x33, 0x6c, 0x00, 0xbf,
  0x85, 0x90, 0xae, 0x3d, 0x5d, 0xf1, 0xfb, 0xbb, 0x78, 0xa0, 0xcf, 0xbd,
  0xc0, 0x8c, 0xa1, 0xbe, 0x7c, 0xae, 0x8d, 0x3d, 0xa9, 0xa0, 0x88, 0x3d,
  0x5a, 0x3b, 0x13, 0xbd, 0xe2, 0x85, 0x1c, 0xbd, 0xdd, 0xf4, 0xe1, 0x3b,
  0xa4, 0xa2, 0xc6, 0xbd, 0x2a, 0xc7, 0xa5, 0x3d, 0x6b, 0x23, 0x8e, 0xbc,
  0xa8, 0x6d, 0x93, 0x3c, 0x22, 0x16, 0xa4, 0x3b, 0x11, 0x42, 0xc7, 0x3c,
  0x0b, 0x35, 0x36, 0x3d, 0x2a, 0x29, 0x19, 0x3d, 0x3d, 0xcf, 0x0c, 0x3d,
  0xfb, 0x85, 0xa7, 0xb9, 0x00, 0x69, 0x9b, 0xbd, 0x7b, 0x78, 0xcc, 0x3c,
  0xf5, 0xa2, 0x32, 0x3d, 0x54, 0xf3, 0x74, 0x3d, 0x3a, 0x24, 0xf3, 0xbd,
  0x2c, 0x5b, 0xae, 0xbd, 0x1f, 0x56, 0x25, 0xbe, 0x8b, 0x41, 0x29, 0xbe,
  0xb3, 0xe9, 0x74, 0xbd, 0x0d, 0x29, 0x1b, 0xbe, 0x34, 0x89, 0x03, 0x3d,
  0x1d, 0xac, 0xdc, 0xbd, 0xe6, 0x94, 0x2e, 0xbe, 0xd9, 0x20, 0x29, 0xbe,
  0x6a, 0x5d, 0xa8, 0xbd, 0x46, 0xeb, 0x30, 0xbe, 0xc4, 0x3d, 0x99, 0x3c,
  0x19, 0x17, 0xed, 0xbd, 0xab, 0x9f, 0x14, 0xbe, 0x2e, 0x4b, 0x87, 0x3d,
  0x58, 0x06, 0x53, 0xbe, 0x65, 0xcf, 0x9a, 0xbc, 0xb6, 0xdf, 0xbd, 0xbc,
  0x54, 0xc4, 0x09, 0xbe, 0x56, 0x69, 0x98, 0xbe, 0xe9, 0xb1, 0x53, 0xbe,
  0x73, 0x4e, 0xd7, 0xbc, 0x14, 0x5c, 0x67, 0xbe, 0x37, 0x57, 0x6e, 0xbd,
  0x20, 0xb0, 0x72, 0x3d, 0xce, 0xbf, 0xc3, 0xbc, 0xf8, 0xf6, 0xfa, 0x3c,
  0x86, 0x06, 0x90, 0xbd, 0x3e, 0x22, 0x50, 0x3d, 0x39, 0x36, 0x08, 0x3e,
  0xce, 0x7d, 0x1d, 0xbe, 0xe9, 0x53, 0xc2, 0xbd, 0xf3, 0x26, 0x2d, 0x3e,
  0x08, 0xd3, 0x95, 0x3c, 0x61, 0xf9, 0x26, 0xbe, 0xef, 0xfc, 0x83, 0xbe,
  0x70, 0xa7, 0x32, 0x3c, 0x51, 0xe5, 0x56, 0xbd, 0x03, 0xca, 0x8d, 0x3d,
  0x60, 0x5e, 0x88, 0xbd, 0xe0, 0x27, 0x88, 0xbe, 0x12, 0x61, 0xc7, 0x3d,
  0x53, 0xec, 0x95, 0xbd, 0x81, 0x36, 0x3a, 0x3e, 0xaa, 0x58, 0xb9, 0xbd,
  0xa9, 0x81, 0xe7, 0xbc, 0x7f, 0xa0, 0x47, 0xbe, 0x77, 0x8f, 0x1e, 0xbc,
  0xcb, 0x44, 0x55, 0x3e, 0x63, 0xb8, 0x78, 0xbc, 0x30, 0x11, 0xd0, 0xbd,
  0x78, 0xb8, 0xc7, 0xbc, 0xa6, 0x69, 0x0e, 0x3e, 0x2e, 0x0d, 0xff, 0xbc,
  0x4d, 0x57, 0x18, 0xbe, 0xaf, 0x33, 0x13, 0xbe, 0x84, 0xd8, 0xff, 0xbd,
  0x48, 0xbd, 0xc2, 0x3d, 0xef, 0x1d, 0x02, 0x3d, 0x36, 0x2d, 0x94, 0x3d,
  0x02, 0xcc, 0x44, 0x3d, 0x30, 0xab, 0x4a, 0xbe, 0x69, 0x07, 0x1f, 0xbe,
  0xca, 0x06, 0x9d, 0x3d, 0x0d, 0x80, 0x5f, 0xbe, 0xde, 0xc7, 0x16, 0x3d,
  0x7f, 0x54, 0x61, 0x3d, 0xb2, 0xd6, 0x01, 0xbe, 0x0e, 0x5b, 0xb9, 0x3d,
  0xeb, 0x9c, 0x65, 0xbe, 0x1a, 0x72, 0x59, 0x3e, 0xad, 0x3c, 0x3f, 0x37,
  0x02, 0x4b, 0x93, 0xbd, 0xd5, 0xf8, 0x9a, 0xbe, 0xd0, 0x4a, 0x2a, 0xbe,
  0xd4, 0xbd, 0xcb, 0x3c, 0x3e, 0x93, 0x06, 0x3d, 0xfa, 0x51, 0xa0, 0xbe,
  0xf7, 0x39, 0xee, 0xbd, 0x3b, 0x6c, 0xd0, 0xbd, 0x0d, 0x99, 0x23, 0x3d,
  0x01, 0x43, 0x00, 0xbe, 0xba, 0x33, 0x94, 0xbd, 0x98, 0x96, 0x7c, 0x3d,
  0xd1, 0x9a, 0x23, 0x3d, 0xef, 0xf0, 0x20, 0xbe, 0x35, 0x51, 0x9e, 0x3d,
  0x14, 0xf3, 0x54, 0xbc, 0xd5, 0x99, 0x4a, 0x3c, 0xb5, 0x21, 0x0a, 0xbe,
  0xc3, 0xfc, 0x16, 0x3d, 0x72, 0x64, 0x6d, 0xbc, 0xb6, 0xe3, 0xfb, 0x3c,
  0x08, 0x39, 0x54, 0xbe, 0x33, 0x16, 0x95, 0xbe, 0x3f, 0x2f, 0x28, 0xbd,
  0xd6, 0x79, 0x9d, 0x3b, 0xdd, 0x35, 0xc2, 0x3d, 0x76, 0x5c, 0xef, 0xbd,
  0x6b, 0x48, 0x8d, 0xbe, 0xa5, 0x08, 0xf0, 0xbc, 0xd8, 0x39, 0xdc, 0xbd,
  0x66, 0x4e, 0x8f, 0xbe, 0xe1, 0xb7, 0xdd, 0x3c, 0xd8, 0xa3, 0x27, 0xbe,
  0x07, 0xdb, 0x8b, 0xbc, 0x3a, 0xa2, 0xa0, 0xbe, 0xb3, 0x17, 0x26, 0x3d,
  0x7d, 0x25, 0x74, 0xbd, 0x71, 0xdf, 0x6a, 0xbe, 0xa6, 0xfb, 0x8b, 0xbe,
  0x07, 0xb4, 0xf5, 0x3b, 0x83, 0x49, 0x89, 0xbd, 0xc1, 0x40, 0xe2, 0x39,
  0x19, 0x1c, 0x8d, 0xbe, 0x4c, 0x51, 0xa2, 0xbe, 0x7e, 0x87, 0xa4, 0x3c,
  0xb1, 0xb4, 0x99, 0xbe, 0x4d, 0x19, 0xf8, 0xbc, 0x7b, 0x59, 0x0b, 0x3f,
  0xda, 0x4c, 0x29, 0xbe, 0x03, 0x26, 0x17, 0xbe, 0x9d, 0x5f, 0x5f, 0xbd,
  0xc6, 0xde, 0x1b, 0xbe, 0x04, 0x54, 0x1f, 0x3e, 0x96, 0x39, 0xee, 0xbd,
  0xed, 0x72, 0xc7, 0xbd, 0x4a, 0x97, 0x06, 0xbe, 0xe1, 0xb8, 0x2f, 0xbe,
  0x97, 0x29, 0xfc, 0xbd, 0xc3, 0x73, 0xb3, 0x3d, 0x47, 0xcd, 0x02, 0xbe,
  0x00, 0xd9, 0x42, 0xbe, 0xcd, 0xeb, 0x05, 0xbe, 0x98, 0x10, 0xea, 0xbc,
  0x69, 0xa5, 0x4b, 0x3e, 0xb9, 0x7a, 0x17, 0xbc, 0xa1, 0x73, 0xb2, 0xbc,
  0x54, 0xbb, 0x91, 0xbe, 0x30, 0x51, 0xa6, 0x3d, 0x28, 0xd0, 0x91, 0x3e,
  0xdb, 0xfc, 0x0c, 0xbe, 0x1f, 0xfb, 0x52, 0xbe, 0x97, 0x89, 0x82, 0xbe,
  0xad, 0x76, 0xe2, 0x3d, 0xac, 0x86, 0x39, 0xbe, 0x66, 0x15, 0xc3, 0xbb,
  0x29, 0xae, 0x4b, 0x3d, 0x7b, 0x22, 0xc8, 0xbd, 0x2d, 0xa0, 0x9f, 0xbe,
  0x1d, 0xeb, 0x3a, 0x3d, 0xe9, 0xe6, 0x3e, 0x3f, 0x8f, 0x67, 0xf2, 0xbd,
  0xd4, 0xa8, 0x11, 0x3d, 0x68, 0xb1, 0x9e, 0xbd, 0xe4, 0x48, 0xa5, 0xbd,
  0xf6, 0xa4, 0xf4, 0x3d, 0xa0, 0xba, 0x14, 0xbe, 0x88, 0xb9, 0x4b, 0x3d,
  0x28, 0xee, 0x8f, 0xbd, 0xb7, 0xde, 0x7d, 0xbe, 0xf5, 0xc1, 0xeb, 0xbd,
  0xf8, 0xc7, 0xc5, 0xbc, 0xd6, 0xcc, 0x79, 0x3d, 0xae, 0x61, 0x4a, 0xbe,
  0xfb, 0x29, 0x99, 0xbe, 0xe7, 0x23, 0x6d, 0xbe, 0x6d, 0x2b, 0x95, 0x3f,
  0xca, 0xe0, 0x69, 0xbd, 0xb6, 0xc8, 0x00, 0x3d, 0x95, 0x52, 0x7e, 0xbe,
  0x36, 0xdb, 0x0e, 0xbe, 0x39, 0x65, 0x7d, 0xbd, 0xc2, 0xb8, 0xc3, 0xbd,
  0x21, 0x87, 0x10, 0xbe, 0xae, 0xb6, 0x81, 0xbd, 0x8e, 0xac, 0xbd, 0xbd,
  0xb9, 0x38, 0x55, 0x3c, 0x8c, 0xe6, 0x9b, 0xbd, 0xb0, 0x5a, 0x12, 0xbe,
  0xde, 0x53, 0xb5, 0xbe, 0x61, 0xb8, 0x92, 0x3b, 0x35, 0xeb, 0xfd, 0xbd,
  0xdc, 0x18, 0xa6, 0x3f, 0xfe, 0x5d, 0x62, 0xbd, 0x57, 0xb2, 0x2e, 0xbe,
  0x56, 0x87, 0x8e, 0xbd, 0x93, 0xba, 0x44, 0xbe, 0x8f, 0x27, 0x83, 0x3e,
  0x97, 0xdf, 0x23, 0xbc, 0xcb, 0x74, 0x77, 0xbe, 0xe0, 0xbc, 0xcd, 0xbd,
  0x5d, 0xb0, 0x71, 0xbe, 0xfc, 0xf9, 0xb0, 0x3d, 0x04, 0x25, 0x94, 0xbd,
  0x58, 0xae, 0x8f, 0xbe, 0x3b, 0x20, 0x94, 0xbe, 0x7d, 0x3d, 0x33, 0x3d,
  0x20, 0x04, 0xf5, 0xbc, 0x3d, 0x84, 0x7a, 0x3f, 0x75, 0x4e, 0xba, 0xbd,
  0xae, 0x21, 0xd6, 0x3d, 0x0b, 0x90, 0x2c, 0xbe, 0x46, 0x54, 0x10, 0xbe,
  0xc3, 0x86, 0x1b, 0x3e, 0xb5, 0x72, 0x10, 0xbb, 0x5e, 0xf8, 0xd9, 0xbd,
  0x36, 0x1e, 0x78, 0xbe, 0x03, 0x20, 0xbe, 0xbe, 0x67, 0xfd, 0xd1, 0xbd,
  0x0e, 0x82, 0x77, 0xbe, 0x0e, 0x68, 0x5b, 0xbe, 0x68, 0xf2, 0x3a, 0xbe,
  0x7d, 0x54, 0x7d, 0xbe, 0x7d, 0x9f, 0x85, 0xbe, 0x54, 0x75, 0x83, 0x3e,
  0x13, 0x2b, 0x02, 0x3c, 0x65, 0xce, 0x04, 0xbe, 0x38, 0xdf, 0x83, 0xbd,
  0x03, 0x00, 0x0f, 0xbe, 0xea, 0xcf, 0xeb, 0x3c, 0x1d, 0x22, 0x13, 0xbe,
  0xcd, 0xea, 0x28, 0xbe, 0x81, 0x2a, 0x85, 0xbe, 0xed, 0x98, 0x9d, 0xbe,
  0x66, 0xb8, 0x2d, 0x3e, 0x06, 0x30, 0xc1, 0xbe, 0xe1, 0x81, 0x97, 0xbe,
  0xf5, 0xa5, 0x6a, 0xbc, 0x61, 0x7a, 0xb6, 0xbe, 0xfe, 0x1d, 0xda, 0xbd,
  0xa9, 0x6d, 0x6b, 0x3e, 0x7e, 0x7e, 0x96, 0xbe, 0x4c, 0x90, 0x2f, 0xbe,
  0x8c, 0x1a, 0x0c, 0xbe, 0xa2, 0x38, 0x36, 0xbe, 0x8f, 0x27, 0x90, 0xbb,
  0x32, 0xa8, 0x05, 0xbe, 0x61, 0x49, 0x90, 0x3c, 0xd1, 0x9a, 0x60, 0xbe,
  0xf2, 0x27, 0x64, 0xbc, 0xbe, 0x35, 0x0a, 0xbe, 0xa9, 0x67, 0xe2, 0x3b,
  0x55, 0x88, 0x2f, 0xbe, 0xe1, 0x26, 0x1f, 0xbe, 0x72, 0xf6, 0x06, 0xbe,
  0x56, 0x83, 0x4b, 0xbe, 0x4a, 0xaa, 0xa0, 0x3f, 0xfa, 0xe2, 0xdd, 0x3c,
  0xa7, 0xe1, 0x22, 0xbd, 0x18, 0x32, 0x2d, 0xbe, 0x6f, 0xe9, 0x15, 0xbc,
  0xcd, 0x45, 0x50, 0x3e, 0xce, 0xe2, 0x38, 0xbd, 0x8d, 0xae, 0x2b, 0xbe,
  0xd2, 0x19, 0xe3, 0xbd, 0x69, 0x03, 0x13, 0x3e, 0xb2, 0x72, 0xea, 0xbd,
  0x5b, 0x6d, 0x6d, 0xbe, 0x96, 0x28, 0x60, 0xbd, 0xe9, 0x5a, 0x86, 0x3c,
  0x97, 0xdd, 0x33, 0xbe, 0xfc, 0x49, 0x3b, 0xbe, 0x76, 0x18, 0xbc, 0x3f,
  0xc1, 0xc5, 0x01, 0xbe, 0xb0, 0xe8, 0x44, 0xbd, 0xfc, 0x1d, 0xae, 0xbe,
  0x27, 0x5b, 0x8d, 0xbd, 0x33, 0x47, 0x93, 0x3e, 0x45, 0x9e, 0xed, 0xbd,
  0x18, 0x2b, 0xd5, 0xbd, 0xdc, 0x6b, 0x2e, 0x3d, 0xe7, 0xba, 0x15, 0x3e,
  0x62, 0xf3, 0x51, 0x3e, 0x3c, 0x93, 0x43, 0xbe, 0x98, 0x57, 0x43, 0xbe,
  0xc6, 0x7d, 0x2e, 0xbe, 0xec, 0x9e, 0x83, 0xbe, 0xd0, 0xeb, 0xbd, 0x3d,
  0x88, 0x44, 0x85, 0x3e, 0x57, 0xbd, 0x8f, 0xbd, 0x67, 0x97, 0x8a, 0xbe,
  0x45, 0x3a, 0x11, 0xbe, 0x29, 0xdf, 0xca, 0x3c, 0x50, 0x2b, 0x66, 0x3e,
  0xf7, 0x80, 0x81, 0xbd, 0x17, 0x2d, 0x6e, 0xbe, 0x11, 0xd1, 0x58, 0xbe,
  0x4b, 0x23, 0x8c, 0x3b, 0x3d, 0x72, 0x4a, 0x3e, 0xc6, 0xbe, 0xb8, 0xbe,
  0x50, 0xef, 0x27, 0xbe, 0xe0, 0xf9, 0x6b, 0xbe, 0x78, 0x4b, 0x8a, 0xbe,
  0xfa, 0x72, 0x1b, 0xbe, 0x11, 0x53, 0xae, 0x3f, 0xc3, 0xd7, 0xa7, 0xbd,
  0xc9, 0x5a, 0x1b, 0x3d, 0x2f, 0x6a, 0x4e, 0xbe, 0xe4, 0x11, 0x9c, 0x3d,
  0xf7, 0x8f, 0x13, 0x3f, 0xf2, 0x3b, 0x2f, 0xbe, 0x22, 0xd2, 0x9b, 0x3c,
  0x8b, 0xde, 0x28, 0xbd, 0xe0, 0x04, 0xa3, 0xbd, 0x2a, 0x25, 0xa4, 0x3d,
  0x49, 0xd5, 0x52, 0xbe, 0x11, 0x31, 0x82, 0xbe, 0xc0, 0xaf, 0xb4, 0xbd,
  0x3d, 0xe8, 0x7e, 0xbe, 0x5b, 0xfc, 0x3c, 0x3e, 0x78, 0x6d, 0x17, 0x3f,
  0xcd, 0xd7, 0x81, 0x3b, 0x4c, 0x6c, 0x48, 0xbe, 0x4d, 0x4b, 0x4f, 0xbe,
  0x3e, 0x46, 0x80, 0xbe, 0x7b, 0x93, 0x67, 0x3d, 0x3a, 0x32, 0x34, 0x3d,
  0xd3, 0x27, 0x02, 0xbe, 0x14, 0x1d, 0x6b, 0xbd, 0x2f, 0xac, 0xe6, 0x3d,
  0x64, 0x9c, 0xd6, 0x3c, 0x68, 0xc7, 0x3c, 0xbe, 0xc1, 0x7b, 0x53, 0xbe,
  0x90, 0x7d, 0x6a, 0xbe, 0xf7, 0x6e, 0x17, 0xbe, 0x77, 0xb8, 0x95, 0xbe,
  0xfa, 0xd3, 0x32, 0x3f, 0x2b, 0xe2, 0x87, 0xbe, 0xaf, 0x7a, 0x6a, 0xbc,
  0xa3, 0xf4, 0xbb, 0xbe, 0x57, 0x6a, 0x24, 0xbd, 0xa4, 0xc0, 0xc4, 0x3e,
  0x9d, 0xd6, 0x27, 0xbe, 0x1d, 0x02, 0x85, 0xba, 0xe4, 0x5c, 0x82, 0xbe,
  0x5d, 0x62, 0xf2, 0xbd, 0xf9, 0xe8, 0x4c, 0xbc, 0x4f, 0x74, 0x86, 0xbd,
  0x81, 0x53, 0x11, 0xbe, 0xc5, 0x47, 0xa3, 0x3e, 0xd1, 0x29, 0xbb, 0xbd,
  0xec, 0x69, 0x77, 0x3d, 0xf1, 0xbb, 0x3b, 0x3f, 0x7f, 0x2f, 0xda, 0xbd,
  0x90, 0x4c, 0x84, 0xbd, 0x23, 0x2e, 0x88, 0xbe, 0x52, 0xb8, 0x56, 0x3c,
  0x5a, 0x26, 0x97, 0xbd, 0xc6, 0x9b, 0x57, 0xbe, 0xec, 0xa0, 0x55, 0x3c,
  0x35, 0xab, 0x01, 0xbd, 0x74, 0x08, 0x7c, 0xbd, 0x0d, 0x88, 0x28, 0x3d,
  0x0e, 0x0a, 0x22, 0xbe, 0x5e, 0x91, 0x82, 0xbe, 0x36, 0xe5, 0xe3, 0x3c,
  0x5b, 0xd2, 0xa0, 0xbd, 0x9d, 0x1a, 0x99, 0xbd, 0x6a, 0x68, 0xe8, 0x3e,
  0x93, 0x02, 0x5d, 0xbd, 0x62, 0x75, 0x26, 0xbc, 0xe2, 0x68, 0x4f, 0xbe,
  0x5f, 0x16, 0x51, 0x3e, 0xe8, 0x4a, 0x9c, 0x3e, 0x3b, 0x6b, 0x06, 0x3e,
  0xc2, 0xff, 0x20, 0x3e, 0xb5, 0x55, 0x8b, 0xbc, 0xf0, 0xfc, 0x1f, 0xbe,
  0xa1, 0x1e, 0x0c, 0x3e, 0xd4, 0xde, 0x33, 0xbe, 0x2c, 0xd4, 0x3b, 0xbe,
  0x04, 0x6b, 0x84, 0x3d, 0x82, 0x91, 0x78, 0xbd, 0x07, 0x30, 0xa9, 0xbd,
  0xf0, 0x8c, 0x10, 0x3f, 0x3d, 0x49, 0x14, 0xbd, 0x61, 0x99, 0x06, 0x3d,
  0x38, 0x7f, 0x16, 0x3c, 0x83, 0xdb, 0x88, 0xbe, 0x58, 0x6d, 0x32, 0x3e,
  0xa8, 0x2e, 0x39, 0x3e, 0x64, 0xfa, 0x98, 0x3d, 0x7e, 0x4b, 0x3d, 0xbe,
  0x74, 0x03, 0xe3, 0xbd, 0x54, 0x77, 0x53, 0xbe, 0x10, 0xf9, 0x37, 0xbc,
  0xbd, 0x77, 0xe5, 0xbd, 0xea, 0xf6, 0x18, 0x3d, 0xbe, 0x53, 0x60, 0xbe,
  0x9f, 0xe1, 0x99, 0x3b, 0x6f, 0x16, 0x2c, 0x3f, 0xd5, 0xdd, 0xb1, 0xbd,
  0xbc, 0xa9, 0x37, 0x3d, 0x4b, 0x1a, 0x2f, 0xbe, 0x60, 0xb1, 0x4f, 0xbe,
  0xa8, 0xd7, 0xd9, 0x3c, 0xe4, 0xd6, 0x92, 0x3d, 0xa8, 0x59, 0xcd, 0xbd,
  0x2a, 0x55, 0x25, 0xbe, 0x99, 0x42, 0xe1, 0x3d, 0xdb, 0xfd, 0xf1, 0x3d,
  0x07, 0x9b, 0x75, 0x3d, 0x0a, 0xd5, 0x0d, 0x3e, 0xbf, 0x06, 0x19, 0xbe,
  0xec, 0xfb, 0x14, 0xbe, 0x10, 0xe5, 0x3a, 0xbb, 0x4b, 0xac, 0x32, 0x3f,
  0x7f, 0xf8, 0xc5, 0xbd, 0x43, 0x99, 0xf4, 0xbd, 0xd7, 0xd8, 0xc6, 0x3c,
  0x2b, 0xec, 0x9f, 0x3d, 0x99, 0xea, 0x3c, 0x3e, 0x0f, 0xf5, 0xee, 0xbd,
  0xbe, 0xf6, 0x68, 0xbe, 0x41, 0xf4, 0x03, 0xbe, 0x28, 0x99, 0xc9, 0xbd,
  0x7b, 0x83, 0x6a, 0x3d, 0x3b, 0x62, 0x1e, 0xbe, 0x40, 0xad, 0x97, 0xbe,
  0x0e, 0xa4, 0xcc, 0x3c, 0x0d, 0x4b, 0x7e, 0xbe, 0xdc, 0xe4, 0xae, 0xbb,
  0xd1, 0xba, 0x23, 0x3f, 0x57, 0x51, 0x91, 0xbd, 0xe3, 0x3a, 0x00, 0x3d,
  0x04, 0x80, 0x54, 0xbe, 0x75, 0x4e, 0x47, 0xbe, 0xb1, 0xf2, 0x8f, 0x3e,
  0xb1, 0x38, 0x00, 0x3c, 0x73, 0x39, 0x65, 0xbe, 0x06, 0x6f, 0x5c, 0xbd,
  0xf9, 0x4a, 0xc4, 0x3d, 0x3b, 0xe0, 0xca, 0x3d, 0x9f, 0x5d, 0x93, 0xbe,
  0x9c, 0x3b, 0x56, 0xbe, 0xd8, 0x1b, 0x7e, 0xbe, 0x53, 0x3b, 0x91, 0xbe,
  0x23, 0x2b, 0x69, 0xbd, 0xd6, 0xae, 0x29, 0x3f, 0x93, 0xc4, 0x2a, 0xbc,
  0x93, 0x50, 0x09, 0x3c, 0xaa, 0x66, 0x65, 0xbe, 0x74, 0x31, 0x27, 0xbe,
  0xfe, 0x81, 0x82, 0x3e, 0xb4, 0xc4, 0xbc, 0xbd, 0xab, 0xc7, 0x02, 0x3e,
  0x2c, 0x48, 0x80, 0xbd, 0x7c, 0x33, 0x6d, 0xbe, 0x40, 0xb7, 0x96, 0x3d,
  0x6f, 0x4d, 0x74, 0xbd, 0x72, 0x0b, 0x30, 0xbe, 0xa3, 0x9c, 0x82, 0xbe,
  0xbc, 0xe2, 0x9e, 0xbd, 0x41, 0x09, 0x2a, 0xbe, 0x53, 0x2d, 0xbe, 0x3d,
  0x87, 0x90, 0x4c, 0xbe, 0x57, 0xfe, 0xc9, 0x3d, 0x02, 0x7a, 0x8c, 0xbd,
  0x19, 0x7c, 0xcb, 0xbd, 0x3f, 0x1f, 0x68, 0xbe, 0xa1, 0x7c, 0x9c, 0xbe,
  0xf1, 0x4f, 0x73, 0xbd, 0x4a, 0xfc, 0x06, 0x3d, 0x75, 0x05, 0xc8, 0x3d,
  0x5f, 0x5f, 0xc0, 0xbd, 0x5f, 0xa3, 0xa7, 0xbd, 0xe0, 0xd4, 0x46, 0xbe,
  0x24, 0x31, 0x37, 0xbe, 0xed, 0xfe, 0x7c, 0xbe, 0x44, 0x06, 0x3c, 0xbe,
  0xcf, 0x81, 0x57, 0xbe, 0xff, 0xee, 0x3b, 0xbd, 0x3f, 0x77, 0x34, 0xbe,
  0x67, 0xf2, 0xf2, 0xbd, 0xe4, 0x59, 0x1b, 0xbb, 0xfa, 0x08, 0xcd, 0x3d,
  0x71, 0xa3, 0x7b, 0x3d, 0xe8, 0x62, 0xc1, 0x3d, 0x64, 0xab, 0x19, 0x3e,
  0xbb, 0x17, 0x8e, 0xbe, 0xe8, 0xfd, 0x41, 0xbe, 0xde, 0x73, 0xd4, 0xbb,
  0xed, 0xd9, 0x91, 0xbc, 0x65, 0xae, 0x83, 0xbe, 0x4d, 0xbc, 0x83, 0xbe,
  0xfe, 0x9f, 0x1c, 0xbe, 0x1f, 0x31, 0x80, 0x3d, 0x39, 0x36, 0xf1, 0x3d,
  0xfe, 0xa0, 0x90, 0x3d, 0xf9, 0xbb, 0xa0, 0xbe, 0xed, 0x3c, 0x38, 0xbe,
  0xea, 0xa0, 0x2e, 0x3d, 0xb5, 0x45, 0x82, 0xbe, 0xf2, 0x47, 0x80, 0xbe,
  0x3f, 0xe4, 0x33, 0xbe, 0x23, 0x0a, 0x24, 0xbe, 0x4b, 0x36, 0x4e, 0x3e,
  0x65, 0x04, 0x53, 0xbe, 0xba, 0xa2, 0xff, 0xbd, 0x6f, 0x50, 0xf8, 0x3d,
  0xa4, 0x95, 0x94, 0x3d, 0x44, 0x67, 0xff, 0xbd, 0x4c, 0x84, 0x06, 0xbe,
  0x13, 0x63, 0x48, 0xbe, 0x13, 0x78, 0x18, 0xbc, 0xd8, 0x63, 0x37, 0xbe,
  0x8c, 0xc4, 0xf5, 0xbc, 0xb7, 0xab, 0x42, 0x3e, 0x8c, 0x20, 0x54, 0x3d,
  0x3e, 0xee, 0x6d, 0xbe, 0x5a, 0x0c, 0x33, 0x3d, 0xdd, 0x64, 0xbd, 0xbd,
  0x5b, 0x33, 0x8d, 0xbc, 0xef, 0x76, 0x5e, 0x3d, 0x3d, 0x8b, 0x98, 0xbd,
  0x7b, 0x13, 0xfa, 0xbd, 0x3f, 0x42, 0x34, 0xbe, 0x74, 0xda, 0xc4, 0xbd,
  0xbe, 0x82, 0xa9, 0xbd, 0x74, 0xc7, 0x53, 0xbe, 0xac, 0xbf, 0x28, 0xbe,
  0x0c, 0xc6, 0x39, 0x3b, 0x27, 0xaf, 0x94, 0xbe, 0xc4, 0xc2, 0x15, 0xbe,
  0xdc, 0x45, 0x3e, 0xbe, 0xc7, 0xc4, 0x70, 0xbe, 0xbb, 0xe3, 0x62, 0xbd,
  0xb3, 0x81, 0x60, 0xbd, 0x8e, 0xc8, 0xb2, 0xbd, 0x3c, 0x2d, 0xaf, 0x3d,
  0x59, 0x9c, 0x97, 0x3d, 0xdb, 0xa6, 0x80, 0x3d, 0x22, 0x04, 0x38, 0xbc,
  0xe5, 0xfe, 0x55, 0xbe, 0x95, 0x0f, 0xc1, 0xbd, 0xb1, 0xb3, 0xbc, 0xbd,
  0xce, 0xb5, 0x98, 0xbe, 0x0b, 0xe9, 0x92, 0xbd, 0x50, 0xa6, 0x94, 0xbe,
  0x3e, 0xe7, 0xcc, 0xbd, 0x44, 0x5e, 0x47, 0xbe, 0x21, 0xf3, 0x67, 0xbe,
  0x1e, 0x4c, 0xca, 0x3d, 0x1f, 0x94, 0x80, 0x3c, 0x76, 0x28, 0x48, 0xbe,
  0x2f, 0xf0, 0x81, 0x3c, 0x45, 0x6c, 0x97, 0x3d, 0x05, 0xe1, 0x90, 0xbe,
  0xdb, 0xa4, 0x41, 0xbd, 0xa0, 0xc2, 0x0e, 0x3d, 0x7d, 0x0f, 0x49, 0xbe,
  0xce, 0x37, 0xfa, 0xbc, 0xf2, 0x68, 0x8b, 0xbd, 0xd2, 0xbc, 0x92, 0xbe,
  0xba, 0xe5, 0x84, 0xbe, 0x34, 0xaf, 0x79, 0xbd, 0x7e, 0x2b, 0x2b, 0xbd,
  0x2f, 0xe6, 0x4a, 0x3d, 0xdb, 0x7d, 0x5e, 0xbe, 0x7c, 0xc0, 0x79, 0xbd,
  0xdc, 0xe2, 0x0a, 0x3c, 0x84, 0x96, 0x8b, 0xbd, 0x1e, 0xcd, 0x1d, 0xbe,
  0x0d, 0xdd, 0x82, 0xbe, 0xce, 0xa6, 0x2d, 0x3b, 0xce, 0xed, 0x37, 0xbd,
  0x35, 0xbf, 0x26, 0x3f, 0x00, 0x46, 0xa2, 0xbd, 0xed, 0x78, 0x4e, 0xbe,
  0x48, 0x12, 0xc8, 0xbd, 0x68, 0x7b, 0xad, 0xbd, 0x76, 0xd7, 0xd9, 0xbd,
  0x24, 0xa0, 0x68, 0xbe, 0xad, 0x0e, 0x5e, 0xbe, 0x79, 0x35, 0x42, 0x3d,
  0x19, 0xf6, 0xc3, 0xbc, 0x12, 0x32, 0x0f, 0x3e, 0xcf, 0xc3, 0xde, 0x3d,
  0x6a, 0xd7, 0x05, 0xbe, 0xd5, 0x60, 0x8b, 0xbd, 0x8e, 0x03, 0xa7, 0xbd,
  0x94, 0x8c, 0x8d, 0xbd, 0x68, 0x99, 0x1d, 0x3f, 0x22, 0x92, 0x0c, 0x3d,
  0xef, 0x4d, 0x96, 0xbd, 0xa9, 0x45, 0xa3, 0xbe, 0x29, 0xd5, 0xb1, 0x3d,
  0x19, 0xb3, 0x3b, 0x3e, 0x6d, 0x04, 0x91, 0xbd, 0x78, 0x92, 0x36, 0xbe,
  0x73, 0x6e, 0x92, 0xbd, 0x1d, 0x99, 0xf2, 0xbb, 0x46, 0x3b, 0x1a, 0xbd,
  0xaf, 0x05, 0x18, 0xbe, 0x88, 0x1c, 0xbf, 0x3d, 0x2c, 0xa9, 0x77, 0xbe,
  0x87, 0x77, 0x80, 0xbe, 0x3d, 0xe6, 0xd3, 0xba, 0xcf, 0x37, 0x0b, 0x3f,
  0x85, 0x4d, 0x6b, 0x3d, 0x71, 0xba, 0x3e, 0xbe, 0xca, 0x4b, 0x3f, 0xbd,
  0x22, 0xd3, 0x21, 0xbe, 0x91, 0xbc, 0x83, 0x3e, 0xe2, 0x9f, 0xb2, 0x3d,
  0xc0, 0xf8, 0x30, 0x3e, 0x8b, 0x60, 0xad, 0x3d, 0x28, 0x0b, 0xa4, 0x3d,
  0xc4, 0xf6, 0x07, 0xbe, 0x1e, 0xa5, 0xef, 0x3d, 0xf7, 0xf3, 0x30, 0x3e,
  0xad, 0xbb, 0x9c, 0x3d, 0x7b, 0x2c, 0x40, 0xbe, 0x23, 0x33, 0x2a, 0xbe,
  0x6f, 0x3e, 0x07, 0x3f, 0xe9, 0x49, 0x0c, 0xbe, 0x72, 0xab, 0xbb, 0xbd,
  0xf3, 0xb3, 0x9d, 0xbe, 0x20, 0x1f, 0x96, 0x3c, 0xc8, 0x45, 0x0b, 0x3e,
  0x0b, 0x8d, 0x0e, 0xbd, 0x41, 0xc8, 0x6e, 0xbe, 0x3e, 0xea, 0x81, 0xbd,
  0x4b, 0xdd, 0x0f, 0xbd, 0xc1, 0x91, 0x45, 0xbe, 0x09, 0x89, 0x91, 0x3d,
  0x4b, 0x81, 0xb3, 0x3b, 0x2d, 0x45, 0xa2, 0xbc, 0x11, 0x69, 0x79, 0xbe,
  0x47, 0x65, 0x5b, 0x3e, 0x8b, 0xb7, 0x00, 0x3f, 0x80, 0xe9, 0x98, 0x3c,
  0xfa, 0x85, 0x93, 0xbd, 0xc3, 0x45, 0x68, 0xbe, 0xfa, 0x2f, 0xb1, 0x3d,
  0xbd, 0x6c, 0x94, 0xbd, 0xb2, 0x38, 0x19, 0xbe, 0x36, 0x64, 0x2d, 0xbe,
  0x5f, 0x5c, 0x48, 0xbe, 0x41, 0x3c, 0x84, 0x3d, 0xa5, 0xd9, 0x75, 0x3d,
  0x01, 0xda, 0x72, 0xbd, 0x59, 0x27, 0x01, 0xbe, 0x2e, 0xb5, 0x3d, 0xbe,
  0x50, 0xbc, 0x3c, 0xbe, 0xec, 0x5d, 0x70, 0xbe, 0xde, 0x02, 0x25, 0x3f,
  0x04, 0xff, 0x73, 0x3d, 0xe7, 0x2a, 0xe0, 0x3c, 0x18, 0x2d, 0xa9, 0xbd,
  0xf4, 0xe1, 0x01, 0xbe, 0x68, 0xad, 0x44, 0x3e, 0xa0, 0xa5, 0x23, 0xbe,
  0x52, 0x85, 0x1d, 0x3d, 0x81, 0x88, 0x46, 0xbc, 0xe1, 0xbc, 0x22, 0xbe,
  0xda, 0x36, 0x33, 0xbe, 0xb2, 0x48, 0x8d, 0xbe, 0xc4, 0xb1, 0x18, 0x3d,
  0x64, 0x88, 0x88, 0xbe, 0x43, 0x58, 0xc5, 0xbd, 0xfb, 0x67, 0xd0, 0xbd,
  0xd8, 0xd4, 0xca, 0x3e, 0xf6, 0x70, 0x66, 0xbd, 0x0c, 0x71, 0x66, 0xbe,
  0x38, 0xa3, 0x34, 0xbe, 0x98, 0xc8, 0x55, 0xbe, 0x71, 0x39, 0x5e, 0x3e,
  0xb7, 0x28, 0x38, 0x3e, 0x21, 0x2a, 0xf6, 0xbe, 0xd3, 0x81, 0x14, 0xbe,
  0x57, 0x62, 0x75, 0xbb, 0x1e, 0x97, 0x71, 0xbe, 0xa6, 0x03, 0x89, 0xbe,
  0x55, 0x81, 0x15, 0x3c, 0x7a, 0x7c, 0x6b, 0xbe, 0x1e, 0x60, 0x13, 0x3e,
  0x64, 0x48, 0xc5, 0xbe, 0xa4, 0x17, 0xf0, 0x3e, 0x5e, 0x73, 0x0b, 0x3e,
  0x77, 0xae, 0xbc, 0x3d, 0xd2, 0xfc, 0xad, 0xbe, 0x9f, 0xeb, 0x98, 0xbd,
  0x37, 0x31, 0x83, 0x3e, 0x03, 0xb8, 0x33, 0xbe, 0xc8, 0x29, 0x21, 0xbe,
  0x39, 0xea, 0x5a, 0x3d, 0x63, 0x82, 0x9e, 0x3d, 0x2a, 0x1b, 0x99, 0x3d,
  0x44, 0xa2, 0xc3, 0xbd, 0x87, 0x22, 0x96, 0x3e, 0x11, 0x83, 0x5e, 0xbe,
  0x0d, 0xf6, 0x3a, 0x3e, 0xec, 0x11, 0x8e, 0x3d, 0xbe, 0xd7, 0x62, 0x3f,
  0xc6, 0x8c, 0x27, 0x3d, 0x1d, 0xc2, 0xaa, 0x3e, 0x30, 0xa8, 0x37, 0x3d,
  0xe8, 0xf3, 0x90, 0x3e, 0x97, 0x32, 0x29, 0x3e, 0xaa, 0xfc, 0x1e, 0xbf,
  0xfe, 0x0f, 0x0f, 0xbe, 0x7a, 0xb1, 0x1e, 0x3e, 0xc4, 0x14, 0x72, 0x3e,
  0xc9, 0x49, 0xdf, 0x3d, 0xf3, 0x1c, 0xba, 0xbd, 0xa3, 0xdd, 0x8f, 0x3d,
  0xad, 0x72, 0x96, 0xbd, 0x34, 0x03, 0x00, 0xbc, 0xeb, 0x83, 0x94, 0xbe,
  0x75, 0x21, 0x5c, 0x3f, 0x32, 0xe7, 0x0c, 0xbd, 0xec, 0x62, 0x90, 0xbb,
  0x0e, 0x82, 0x7d, 0x3e, 0xe3, 0x27, 0x92, 0x3e, 0x97, 0x70, 0x8a, 0x3e,
  0x72, 0x70, 0x19, 0xbf, 0xc0, 0xd0, 0x6d, 0xbe, 0xcb, 0xc0, 0x8f, 0x3e,
  0x66, 0xfe, 0xd2, 0x3d, 0xda, 0xb2, 0x74, 0x3e, 0x7e, 0x26, 0x0a, 0xbe,
  0x5c, 0x44, 0x8d, 0xbd, 0xf0, 0xb2, 0x52, 0xbe, 0x27, 0x80, 0x55, 0x3d,
  0x8e, 0x5a, 0xa1, 0x3d, 0xa0, 0xef, 0x6e, 0x3f, 0x5d, 0x56, 0x0f, 0xbc,
  0x0b, 0x0e, 0xd9, 0x3c, 0xec, 0x85, 0x44, 0x3e, 0xd9, 0x3e, 0x49, 0x3e,
  0xec, 0xcb, 0x02, 0x3e, 0x39, 0x2f, 0xab, 0xbe, 0xdb, 0xf0, 0x71, 0xbe,
  0x0c, 0xf7, 0x19, 0x3e, 0xd1, 0x4b, 0x6e, 0x3e, 0x71, 0xb7, 0x4f, 0xbe,
  0xd4, 0xe7, 0x10, 0xbe, 0x91, 0x58, 0xa1, 0xbd, 0xc2, 0x97, 0x6d, 0xbe,
  0x59, 0x90, 0x29, 0xbd, 0x29, 0x08, 0xf6, 0xbc, 0xd5, 0xd7, 0xff, 0x3e,
  0x5b, 0xdd, 0xea, 0xbc, 0x8b, 0x41, 0x04, 0x3d, 0x6e, 0xe3, 0x61, 0x3e,
  0xce, 0xb2, 0x65, 0x3d, 0x68, 0x64, 0xb8, 0xbc, 0x64, 0x7b, 0xda, 0xbe,
  0x69, 0x79, 0x95, 0xbe, 0xe4, 0xf6, 0xe9, 0xbd, 0xe6, 0x08, 0x51, 0x3d,
  0xfb, 0x70, 0x0a, 0xbf, 0x1f, 0x7c, 0xb4, 0xbe, 0x3f, 0x31, 0x46, 0xbe,
  0xd0, 0xf6, 0x63, 0xbe, 0xbd, 0xdf, 0x85, 0x3d, 0x69, 0x8a, 0x8c, 0x3e,
  0xcd, 0x9c, 0x52, 0x3f, 0x94, 0x63, 0x7d, 0x3d, 0x1a, 0x4e, 0x2b, 0xbd,
  0xfb, 0x9f, 0xea, 0xb9, 0x4f, 0xea, 0xad, 0xbd, 0x4b, 0x53, 0xe5, 0xbc,
  0x70, 0xad, 0x43, 0xbf, 0x12, 0xd6, 0x4a, 0xbe, 0xaa, 0x2b, 0xa2, 0x3d,
  0x01, 0x71, 0xa9, 0x3d, 0x57, 0x37, 0xa5, 0xbe, 0x0b, 0x0b, 0x5d, 0x3d,
  0xbd, 0x41, 0xbe, 0x3c, 0x26, 0x17, 0x43, 0x3c, 0xec, 0xad, 0x0c, 0x3d,
  0xb6, 0xfa, 0x92, 0xbe, 0xd2, 0xea, 0xbc, 0x3e, 0x81, 0x53, 0x0e, 0xbd,
  0x05, 0x3b, 0xfa, 0xbc, 0xc6, 0x74, 0xfd, 0xbc, 0x3e, 0x29, 0xc4, 0xbd,
  0x69, 0xfb, 0x24, 0x3e, 0x58, 0x2d, 0x85, 0xbe, 0x66, 0x7a, 0x8f, 0xbc,
  0x30, 0x33, 0xa4, 0xbe, 0x32, 0xb9, 0xca, 0xbe, 0x67, 0x51, 0xcc, 0xbd,
  0x21, 0x5f, 0x93, 0x3e, 0x5a, 0x16, 0x55, 0x3e, 0xbc, 0xbe, 0x32, 0x3e,
  0xb2, 0xec, 0x9e, 0x3d, 0x2e, 0x77, 0xca, 0x3e, 0x30, 0x11, 0x59, 0xbe,
  0x11, 0xa7, 0x9c, 0xbe, 0x60, 0xdf, 0xd9, 0xbe, 0x99, 0x23, 0x90, 0xbd,
  0xa1, 0x7a, 0x85, 0xbe, 0xb2, 0xf1, 0x98, 0xbd, 0x4e, 0x3f, 0x5e, 0xbd,
  0xf5, 0x6c, 0xb7, 0x3d, 0x57, 0x00, 0x94, 0x3e, 0x14, 0xf0, 0xe2, 0xbe,
  0x48, 0x7a, 0x20, 0x3e, 0x5c, 0x44, 0xd8, 0x3d, 0x45, 0x92, 0xa3, 0xbd,
  0x3c, 0xff, 0x01, 0x3e, 0x32, 0xee, 0x04, 0xbd, 0x3b, 0x56, 0xe5, 0xbd,
  0x30, 0x39, 0x53, 0xbe, 0x73, 0xe6, 0xcc, 0xbe, 0x50, 0xc8, 0xa0, 0xbd,
  0xf7, 0x7a, 0x2a, 0xbe, 0x56, 0x52, 0x0c, 0xbc, 0x4b, 0x38, 0xd8, 0xbd,
  0x8c, 0xb8, 0xac, 0x3e, 0x00, 0x9d, 0x50, 0x3d, 0xa2, 0xcd, 0x9e, 0x3e,
  0x69, 0x68, 0xb7, 0xbd, 0x7c, 0xbd, 0x70, 0x3e, 0x1d, 0x0c, 0x97, 0x3d,
  0xed, 0x3a, 0x98, 0x3c, 0xa5, 0xcf, 0x50, 0x3e, 0x70, 0xbd, 0x88, 0xbd,
  0xeb, 0x00, 0x05, 0xbe, 0xa4, 0xda, 0xbe, 0xbe, 0x22, 0x6d, 0x99, 0xbe,
  0x6f, 0xc9, 0x30, 0x3e, 0x6a, 0x8e, 0x67, 0x3d, 0x8a, 0xf9, 0x83, 0x3e,
  0xa6, 0x1e, 0xb6, 0xbd, 0xfb, 0xe4, 0x32, 0x3f, 0x7c, 0x31, 0xf1, 0x3e,
  0x8a, 0xaa, 0x69, 0xbe, 0x50, 0x7e, 0x86, 0xbd, 0xae, 0xe2, 0x8e, 0x3e,
  0x7e, 0x99, 0xd3, 0x3e, 0x05, 0xdb, 0x0a, 0x3e, 0x10, 0x08, 0xd0, 0x3e,
  0x4d, 0x41, 0xf6, 0xbc, 0x2b, 0xa8, 0xc0, 0xbd, 0xe3, 0x01, 0x23, 0xbe,
  0xeb, 0x3e, 0x79, 0xbe, 0x0b, 0x9e, 0xb2, 0x3d, 0x4c, 0x4b, 0x82, 0x3e,
  0x57, 0x2b, 0x24, 0x3d, 0x0d, 0x6d, 0x3b, 0xbe, 0xa0, 0xe6, 0x3a, 0x3f,
  0xd6, 0xd5, 0xff, 0x3e, 0x3d, 0x0c, 0xc1, 0xbe, 0xda, 0x76, 0x28, 0xbe,
  0x64, 0x62, 0x59, 0xbe, 0xd0, 0xa4, 0xc2, 0x3e, 0xd8, 0x4d, 0xa7, 0xbd,
  0x01, 0x45, 0x98, 0x3e, 0x72, 0xa6, 0x0c, 0x3c, 0x84, 0x55, 0x1d, 0x3e,
  0xaf, 0x7e, 0x96, 0x3d, 0x8f, 0x17, 0x59, 0xbe, 0xa7, 0xde, 0x85, 0x3c,
  0xcf, 0xd9, 0x17, 0x3d, 0x74, 0x85, 0xf3, 0xbe, 0x9e, 0xfc, 0x58, 0x3d,
  0xcb, 0xe2, 0x7d, 0x3e, 0x33, 0x95, 0x27, 0x3d, 0xab, 0xbe, 0xa5, 0xbe,
  0x44, 0xb1, 0xa3, 0xbe, 0x1a, 0x1f, 0xc2, 0xbe, 0x24, 0xc4, 0xa7, 0x3e,
  0x57, 0xb6, 0x17, 0x3e, 0x6a, 0x7b, 0x8d, 0x3e, 0x29, 0x7d, 0x82, 0xbc,
  0xc6, 0x6c, 0x7b, 0x3e, 0x1a, 0x82, 0x96, 0xbe, 0xf3, 0x54, 0x94, 0xbd,
  0x8e, 0x53, 0xa6, 0x3d, 0x44, 0x54, 0x53, 0xbd, 0x83, 0x5c, 0xb0, 0xbe,
  0x0f, 0x6b, 0xa2, 0x3d, 0x46, 0x35, 0xc2, 0x3d, 0x8b, 0xab, 0xa8, 0xbd,
  0x03, 0xf2, 0x6d, 0xbe, 0xba, 0xb9, 0xf3, 0xbd, 0x09, 0x4f, 0x11, 0xbe,
  0x6b, 0xdf, 0xd2, 0x3d, 0x51, 0x3f, 0x02, 0x3d, 0x25, 0x4e, 0x3b, 0xbc,
  0x70, 0x23, 0xda, 0x3c, 0xe4, 0xa0, 0x1e, 0x3d, 0x74, 0xba, 0x5b, 0xbe,
  0xce, 0xd5, 0xc6, 0x3d, 0xc3, 0x09, 0x47, 0xbc, 0xbb, 0xc7, 0x95, 0xbd,
  0x92, 0xf7, 0xba, 0xbd, 0xcb, 0xf2, 0xdb, 0xbc, 0x64, 0x0f, 0x2f, 0x3e,
  0x66, 0xfd, 0xff, 0xff, 0x10, 0x00, 0x00, 0x00, 0x07, 0x00, 0x00, 0x00,
  0x14, 0x00, 0x00, 0x00, 0x2c, 0x00, 0x00, 0x00, 0x02, 0x00, 0x00, 0x00,
  0x10, 0x00, 0x00, 0x00, 0x70, 0x00, 0x00, 0x00, 0x17, 0x00, 0x00, 0x00,
  0x73, 0x65, 0x71, 0x75, 0x65, 0x6e, 0x74, 0x69, 0x61, 0x6c, 0x2f, 0x64,
  0x65, 0x6e, 0x73, 0x65, 0x2f, 0x4d, 0x61, 0x74, 0x4d, 0x75, 0x6c, 0x00,
  0xd0, 0xfc, 0xff, 0xff, 0xda, 0xfd, 0xff, 0xff, 0x04, 0x00, 0x00, 0x00,
  0x08, 0x00, 0x00, 0x00, 0xff, 0xff, 0xff, 0xff, 0x70, 0x00, 0x00, 0x00,
  0x00, 0x00, 0x0e, 0x00, 0x18, 0x00, 0x08, 0x00, 0x07, 0x00, 0x0c, 0x00,
  0x10, 0x00, 0x14, 0x00, 0x0e, 0x00, 0x00, 0x00, 0x00, 0x00, 0x00, 0x02,
  0x10, 0x00, 0x00, 0x00, 0x06, 0x00, 0x00, 0x00, 0x10, 0x00, 0x00, 0x00,
  0x2c, 0x00, 0x00, 0x00, 0x01, 0x00, 0x00, 0x00, 0x02, 0x00, 0x00, 0x00,
  0x18, 0x00, 0x00, 0x00, 0x73, 0x65, 0x71, 0x75, 0x65, 0x6e, 0x74, 0x69,
  0x61, 0x6c, 0x2f, 0x66, 0x6c, 0x61, 0x74, 0x74, 0x65, 0x6e, 0x2f, 0x43,
  0x6f, 0x6e, 0x73, 0x74, 0x00, 0x00, 0x00, 0x00, 0x38, 0xfd, 0xff, 0xff,
  0x42, 0xfe, 0xff, 0xff, 0x04, 0x00, 0x00, 0x00, 0x0c, 0x00, 0x00, 0x00,
  0x29, 0xaf, 0xc6, 0xbf, 0xb1, 0x4b, 0x1f, 0x40, 0x69, 0xb5, 0xc8, 0xbf,
  0x26, 0xfe, 0xff, 0xff, 0x10, 0x00, 0x00, 0x00, 0x05, 0x00, 0x00, 0x00,
  0x10, 0x00, 0x00, 0x00, 0x44, 0x00, 0x00, 0x00, 0x01, 0x00, 0x00, 0x00,
  0x03, 0x00, 0x00, 0x00, 0x32, 0x00, 0x00, 0x00, 0x73, 0x65, 0x71, 0x75,
  0x65, 0x6e, 0x74, 0x69, 0x61, 0x6c, 0x2f, 0x64, 0x65, 0x6e, 0x73, 0x65,
  0x5f, 0x31, 0x2f, 0x42, 0x69, 0x61, 0x73, 0x41, 0x64, 0x64, 0x2f, 0x52,
  0x65, 0x61, 0x64, 0x56, 0x61, 0x72, 0x69, 0x61, 0x62, 0x6c, 0x65, 0x4f,
  0x70, 0x2f, 0x72, 0x65, 0x73, 0x6f, 0x75, 0x72, 0x63, 0x65, 0x00, 0x00,
  0xa8, 0xfd, 0xff, 0xff, 0xb2, 0xfe, 0xff, 0xff, 0x04, 0x00, 0x00, 0x00,
  0x40, 0x00, 0x00, 0x00, 0x1d, 0xf1, 0x07, 0x3f, 0x75, 0xf1, 0xb3, 0x3e,
  0x8f, 0xe6, 0x1a, 0x40, 0x8e, 0x33, 0x3c, 0xbf, 0x50, 0x8f, 0x1c, 0xbf,
  0xea, 0xbc, 0x31, 0x40, 0x1b, 0xeb, 0x2a, 0x3e, 0x22, 0x4c, 0x3d, 0x3f,
  0x2e, 0x6b, 0x2f, 0xbe, 0xe3, 0x91, 0x1b, 0x3f, 0xc2, 0x26, 0x02, 0x3f,
  0x84, 0xb0, 0xdc, 0x3e, 0x63, 0x43, 0x0f, 0xbe, 0x82, 0x8c, 0xaa, 0x3e,
  0xd5, 0x14, 0x6b, 0x40, 0x2a, 0xdc, 0x07, 0xbf, 0xca, 0xfe, 0xff, 0xff,
  0x10, 0x00, 0x00, 0x00, 0x04, 0x00, 0x00, 0x00, 0x10, 0x00, 0x00, 0x00,
  0x44, 0x00, 0x00, 0x00, 0x01, 0x00, 0x00, 0x00, 0x10, 0x00, 0x00, 0x00,
  0x30, 0x00, 0x00, 0x00, 0x73, 0x65, 0x71, 0x75, 0x65, 0x6e, 0x74, 0x69,
  0x61, 0x6c, 0x2f, 0x64, 0x65, 0x6e, 0x73, 0x65, 0x2f, 0x42, 0x69, 0x61,
  0x73, 0x41, 0x64, 0x64, 0x2f, 0x52, 0x65, 0x61, 0x64, 0x56, 0x61, 0x72,
  0x69, 0x61, 0x62, 0x6c, 0x65, 0x4f, 0x70, 0x2f, 0x72, 0x65, 0x73, 0x6f,
  0x75, 0x72, 0x63, 0x65, 0x00, 0x00, 0x00, 0x00, 0x4c, 0xfe, 0xff, 0xff,
  0x56, 0xff, 0xff, 0xff, 0x04, 0x00, 0x00, 0x00, 0x40, 0x00, 0x00, 0x00,
  0xc7, 0xec, 0x04, 0xc0, 0x40, 0xb0, 0xd3, 0xbf, 0x03, 0x32, 0xcd, 0x3f,
  0xa2, 0xb7, 0xc9, 0xbf, 0x5a, 0x2a, 0xcc, 0xbf, 0x41, 0xc5, 0x4d, 0xbf,
  0xfc, 0x0f, 0xe9, 0xbf, 0x4c, 0x68, 0xbe, 0x3f, 0xef, 0x09, 0xbc, 0xbf,
  0x30, 0x58, 0x41, 0x40, 0xa2, 0x0d, 0x3c, 0x3f, 0xcc, 0x5a, 0x04, 0x40,
  0x81, 0xcd, 0x52, 0xbf, 0x30, 0x0a, 0xd9, 0xbf, 0x1e, 0x1c, 0xae, 0x3f,
  0xa4, 0x73, 0xe1, 0xbf, 0x6e, 0xff, 0xff, 0xff, 0x10, 0x00, 0x00, 0x00,
  0x03, 0x00, 0x00, 0x00, 0x10, 0x00, 0x00, 0x00, 0x48, 0x00, 0x00, 0x00,
  0x01, 0x00, 0x00, 0x00, 0x10, 0x00, 0x00, 0x00, 0x33, 0x00, 0x00, 0x00,
  0x73, 0x65, 0x71, 0x75, 0x65, 0x6e, 0x74, 0x69, 0x61, 0x6c, 0x2f, 0x63,
  0x6f, 0x6e, 0x76, 0x32, 0x64, 0x5f, 0x31, 0x2f, 0x42, 0x69, 0x61, 0x73,
  0x41, 0x64, 0x64, 0x2f, 0x52, 0x65, 0x61, 0x64, 0x56, 0x61, 0x72, 0x69,
  0x61, 0x62, 0x6c, 0x65, 0x4f, 0x70, 0x2f, 0x72, 0x65, 0x73, 0x6f, 0x75,
  0x72, 0x63, 0x65, 0x00, 0x04, 0x00, 0x06, 0x00, 0x04, 0x00, 0x00, 0x00,
  0x00, 0x00, 0x06, 0x00, 0x08, 0x00, 0x04, 0x00, 0x06, 0x00, 0x00, 0x00,
  0x04, 0x00, 0x00, 0x00, 0x20, 0x00, 0x00, 0x00, 0x58, 0x5a, 0xaf, 0xbf,
  0x4a, 0xf9, 0x17, 0xc0, 0x47, 0x0c, 0x07, 0xbf, 0x8b, 0x96, 0x4f, 0xc0,
  0x35, 0x51, 0x66, 0xbe, 0x84, 0x8c, 0xa3, 0xbf, 0xaa, 0xfe, 0x17, 0x3b,
  0xe5, 0x16, 0x16, 0xc0, 0x00, 0x00, 0x0e, 0x00, 0x14, 0x00, 0x04, 0x00,
  0x00, 0x00, 0x08, 0x00, 0x0c, 0x00, 0x10, 0x00, 0x0e, 0x00, 0x00, 0x00,
  0x10, 0x00, 0x00, 0x00, 0x02, 0x00, 0x00, 0x00, 0x10, 0x00, 0x00, 0x00,
  0x44, 0x00, 0x00, 0x00, 0x01, 0x00, 0x00, 0x00, 0x08, 0x00, 0x00, 0x00,
  0x31, 0x00, 0x00, 0x00, 0x73, 0x65, 0x71, 0x75, 0x65, 0x6e, 0x74, 0x69,
  0x61, 0x6c, 0x2f, 0x63, 0x6f, 0x6e, 0x76, 0x32, 0x64, 0x2f, 0x42, 0x69,
  0x61, 0x73, 0x41, 0x64, 0x64, 0x2f, 0x52, 0x65, 0x61, 0x64, 0x56, 0x61,
  0x72, 0x69, 0x61, 0x62, 0x6c, 0x65, 0x4f, 0x70, 0x2f, 0x72, 0x65, 0x73,
  0x6f, 0x75, 0x72, 0x63, 0x65, 0x00, 0x00, 0x00, 0x90, 0xff, 0xff, 0xff,
  0x14, 0x00, 0x18, 0x00, 0x04, 0x00, 0x00, 0x00, 0x08, 0x00, 0x0c, 0x00,
  0x10, 0x00, 0x00, 0x00, 0x00, 0x00, 0x14, 0x00, 0x14, 0x00, 0x00, 0x00,
  0x14, 0x00, 0x00, 0x00, 0x01, 0x00, 0x00, 0x00, 0x20, 0x00, 0x00, 0x00,
  0x44, 0x00, 0x00, 0x00, 0x2c, 0x00, 0x00, 0x00, 0x04, 0x00, 0x00, 0x00,
  0x01, 0x00, 0x00, 0x00, 0x40, 0x00, 0x00, 0x00, 0x03, 0x00, 0x00, 0x00,
  0x01, 0x00, 0x00, 0x00, 0x0c, 0x00, 0x00, 0x00, 0x63, 0x6f, 0x6e, 0x76,
  0x32, 0x64, 0x5f, 0x69, 0x6e, 0x70, 0x75, 0x74, 0x00, 0x00, 0x00, 0x00,
  0x04, 0x00, 0x00, 0x00, 0xff, 0xff, 0xff, 0xff, 0x40, 0x00, 0x00, 0x00,
  0x03, 0x00, 0x00, 0x00, 0x01, 0x00, 0x00, 0x00, 0xfc, 0xff, 0xff, 0xff,
  0x04, 0x00, 0x04, 0x00, 0x04, 0x00, 0x00, 0x00
};

unsigned int model_tflite_len = 13052;// Fill the int in `src/model.cc` here